[PAD]
[UNK]
[CLS]
[SEP]
[MASK]
!
"
#
$
%
&
'
(
)
*
+
,
-
.
/
0
1
2
3
4
5
6
7
8
9
:
;
<
=
>
?
@
A
B
C
D
E
F
G
H
I
J
K
L
M
N
O
P
Q
R
S
T
U
V
W
X
Y
Z
[
\
]
^
_
`
a
b
c
d
e
f
g
h
i
j
k
l
m
n
o
p
q
r
s
t
u
v
w
x
y
z
{
|
}
~
¡
¢
£
¤
¥
¦
§
¨
©
ª
«
¬
®
¯
°
±
²
³
´
µ
¶
·
¸
¹
º
»
¼
½
¾
¿
Á
Â
Ã
Ä
Å
Æ
Ç
É
Ê
Ì
Í
Î
Ï
Ð
Ó
Ö
×
Ø
Û
Ü
Ý
Þ
ß
à
á
â
ã
ä
å
æ
ç
è
é
ê
ë
ì
í
î
ï
ð
ñ
ò
ó
ô
õ
ö
÷
ø
ù
ú
û
ü
ý
þ
ÿ
ā
ă
ą
ć
Č
č
Đ
đ
ē
ė
ę
ě
ĝ
Ğ
ğ
Ġ
ġ
Ģ
ģ
ī
İ
ı
ł
ń
ň
ŋ
ō
ő
œ
ř
ś
Ş
ş
Š
š
ţ
ū
ů
ű
Ÿ
ż
Ž
ž
ƒ
ư
ǧ
ș
ț
ɑ
ə
ɾ
ʹ
ʼ
ʿ
ˆ
˚
˜
ˮ
́
̂
̆
̇
̈
̧
ͼ
Α
Γ
Δ
Ε
Ι
Κ
Λ
Μ
Ν
Ο
Π
Σ
Τ
Φ
Ω
ά
έ
ή
ί
α
β
γ
δ
ε
ζ
η
θ
ι
κ
λ
μ
ν
ξ
ο
π
ρ
ς
σ
τ
υ
φ
χ
ω
ό
ύ
ώ
А
Б
В
Г
Д
Е
Ж
З
И
К
Л
М
Н
О
П
Р
С
Т
У
Ф
Х
Ц
Ч
Ш
Э
Я
а
б
в
г
д
е
ж
з
и
й
к
л
м
н
о
п
р
с
т
у
ф
х
ц
ч
ш
щ
ъ
ы
ь
э
ю
я
ё
є
ѕ
і
ї
қ
ҫ
һ
ә
ԁ
ա
դ
ե
ի
լ
կ
մ
յ
ն
ո
ս
վ
տ
ր
ւ
א
ב
ג
ד
ה
ו
ז
ח
ט
י
כ
ל
ם
מ
ן
נ
ס
ע
פ
צ
ק
ר
ש
ת
،
ء
آ
أ
ؤ
إ
ئ
ا
ب
ة
ت
ث
ج
ح
خ
د
ذ
ر
ز
س
ش
ص
ض
ط
ظ
ع
غ
ـ
ف
ق
ك
ل
م
ن
ه
و
ى
ي
ً
ٌ
ٍ
َ
ُ
ِ
ّ
ْ
٫
ٰ
ٱ
پ
چ
ک
گ
ی
ं
क
त
द
न
प
म
य
र
ल
व
स
ह
ा
ि
ी
े
ो
्
।
ক
ত
দ
ন
প
ব
ম
য
র
ল
স
া
ি
ু
ে
্
য়
க
ி
்
್
ക
ി
്
ก
ค
ง
จ
ช
ด
ต
ท
น
บ
ป
พ
ม
ย
ร
ล
ว
ส
ห
อ
ะ
ั
า
ิ
ี
ุ
เ
แ
ไ
่
้
์
ა
ე
ი
ლ
ო
რ
ს
ᴏ
ḳ
ạ
ả
ấ
ế
ệ
ố
ộ
‐
‑
–
—
―
‘
’
‚
“
”
„
‟
‡
•
․
…
′
″
‹
›
€
₺
℃
№
™
←
↑
→
−
∙
√
≤
≥
⋆
─
█
■
▪
▬
▶
▸
►
▻
▼
●
★
☆
☎
☺
♀
♡
♥
♦
♪
♫
✅
✌
✓
✔
✨
❑
❗
❤
➖
➡
⠀
⭐
、
。
【
】
〰
あ
い
う
お
か
が
き
く
こ
さ
し
す
た
ち
っ
て
で
と
な
に
の
は
ま
み
も
ら
り
る
れ
を
ん
ア
ィ
イ
ウ
エ
オ
カ
キ
ク
グ
コ
サ
シ
ジ
ス
ズ
タ
ダ
チ
ッ
テ
デ
ト
ド
ナ
ニ
バ
パ
フ
ブ
プ
マ
ミ
ム
メ
ャ
ュ
ョ
ラ
リ
ル
レ
ロ
ン
・
ー
ㅋ
一
万
三
上
下
不
世
东
个
中
主
么
乐
买
了
争
二
五
交
京
人
什
今
代
以
件
会
体
作
信
免
全
公
六
内
出
分
划
利
到
势
北
区
十
单
南
县
双
发
可
台
号
司
合
名
吗
和
品
哪
器
四
国
图
在
地
场
址
坛
城
多
大
天
奖
女
好
娱
子
学
安
完
官
定
宝
家
小
少
山
川
工
巧
市
平
年
广
库
开
式
录
彩
影
微
心
快
怎
性
情
成
我
手
技
投
报
排
推
提
搐
数
文
料
新
方
日
时
是
最
月
有
期
本
机
枚
果
正
水
江
法
注
海
港
游
爱
片
版
牌
物
特
玄
王
玩
现
球
理
生
用
电
界
癟
白
的
直
眉
看
県
真
码
神
票
福
站
第
算
系
繹
红
经
结
网
美
群
羹
老
肖
能
自
色
莽
蓷
蓾
蔒
蔞
行
西
覺
规
解
计
记
论
说
谋
费
资
赛
赢
走
车
软
载
道
部
里
重
金
钱
门
集
霸
页
香
马
高
龙
가
고
기
는
다
로
쀀
사
에
을
의
이
지
하
한
ﬁ
ﬂ
﴾
﴿
️
！
（
）
，
：
🇷
🇹
🌟
🌸
🌹
🌺
🌼
🌿
🍀
🍁
🍃
🎀
🎁
🎈
🏻
🏼
👇
👈
👉
👌
👍
👏
💃
💐
💕
💖
💗
💙
💜
💞
💥
💪
💫
📌
📍
📞
📲
🔥
🔹
😀
😁
😂
😃
😄
😅
😇
😉
😊
😋
😍
😎
😔
😘
😛
🙁
🙂
🙈
🙋
🙏
🤗
##d
##a
##k
##l
##n
##Ä
##±
##λ
##ο
##υ
##τ
##α
##μ
##ι
##ν
##κ
##ό
##s
##t
##i
##e
##ş
##m
##r
##v
##u
##c
##y
##o
##g
##’
##U
##N
##L
##A
##M
##D
##I
##…
##η
##ρ
##γ
##е
##ı
##é
##z
##S
##H
##b
##p
##h
##о
##с
##ь
##ü
##9
##0
##6
##3
##Д
##ğ
##f
##ç
##»
##Ö
##T
##E
##R
##B
##İ
##ý
##“
##1
##C
##”
##ö
##‘
##ę
##K
##O
##j
##2
##8
##„
##î
##ģ
##G
##5
##Ü
##V
##̈
##x
##р
##у
##п
##н
##й
##ш
##и
##đ
##Ş
##7
##w
##q
##к
##в
##🎁
##̆
##Ğ
##ș
##â
##文
##Y
##ς
##4
##市
##南
##区
##þ
##れ
##す
##い
##X
##Ç
##年
##中
##法
##P
##Ã
##¼
##а
##ξ
##ε
##ί
##σ
##—
##г
##д
##э
##т
##ɾ
##€
##ð
##票
##娱
##乐
##平
##台
##χ
##θ
##π
##F
##ي
##ت
##ق
##ب
##ل
##ḳ
##Z
##¾
##و
##ش
##ن
##і
##ò
##Q
##´
##💥
##天
##赢
##彩
##大
##神
##推
##А
##Н
##Т
##–
##″
##Â
##û
##ű
##💕
##ّ
##َ
##ف
##ٌ
##ø
##Ÿ
##§
##利
##色
##W
##ţ
##时
##代
##理
##õ
##б
##м
##ю
##ă
##¦
##˜
##™
##J
##ū
##😊
##¨
##̧
##ä
##😄
##л
##ố
##로
##з
##د
##ф
##х
##ѕ
##ï
##¿
##½
##¶
##信
##上
##群
##á
##ě
##ম
##ক
##া
##ラ
##ン
##・
##リ
##ア
##ル
##я
##í
##ú
##›
##在
##•
##ê
##➡
##ñ
##计
##划
##软
##件
##下
##载
##מ
##ט
##ב
##ח
##ж
##°
##£
##า
##ด
##ก
##ล
##ม
##😋
##¯
##Í
##ー
##ブ
##Å
##►
##ß
##Ġ
##注
##地
##址
##ו
##ס
##י
##ק
##א
##ת
##ا
##ص
##ع
##钱
##的
##物
##是
##什
##么
##生
##肖
##‚
##ā
##Ý
##ї
##ر
##ز
##̇
##ə
##è
##ц
##ó
##®
##¤
##ч
##Ģ
##ک
##«
##ô
##メ
##カ
##サ
##º
##ة
##्
##र
##द
##न
##ा
##म
##य
##े
##ᴏ
##ъ
##ɑ
##다
##ி
##்
##¬
##‟
##š
##ك
##ר
##ן
##ِ
##ه
##م
##ْ
##ī
##は
##お
##に
##œ
##り
##ד
##☺
##️
##ы
##ր
##տ
##ա
##ս
##ն
##ե
##լ
##ج
##ُ
##特
##王
##日
##报
##全
##图
##ئ
##Þ
##😀
##😉
##′
##ͼ
##վ
##−
##ط
##س
##ی
##ˮ
##×
##さ
##Ι
##Γ
##Α
##‑
##Ε
##Ω
##Ν
##Σ
##Τ
##ু
##দ
##ে
##ә
##✌
##ע
##😍
##ύ
##Î
##み
##ù
##ō
##ά
##ή
##¡
##ł
##♫
##ト
##グ
##レ
##ナ
##デ
##ィ
##体
##ุ
##พ
##น
##แ
##้
##ว
##🌟
##₺
##‐
##،
##ح
##ค
##์
##เ
##จ
##号
##の
##子
##ë
##🏼
##❤
##آ
##ż
##码
##单
##双
##🙏
##💗
##分
##チ
##用
##パ
##ã
##å
##¸
##æ
##à
##һ
##Ф
##ﬂ
##사
##Ó
##覺
##テ
##合
##心
##水
##网
##č
##莽
##谋
##ì
##¥
##页
##δ
##ώ
##ً
##÷
##گ
##ġ
##玄
##机
##（
##）
##开
##奖
##结
##果
##马
##经
##一
##ى
##四
##有
##多
##少
##อ
##ง
##ส
##ี
##บ
##ร
##ะ
##ท
##่
##ป
##ย
##ต
##ั
##ț
##ř
##ス
##マ
##ث
##情
##小
##说
##不
##】
##シ
##ョ
##ダ
##バ
##ッ
##³
##پ
##ა
##京
##赛
##车
##©
##إ
##。
##이
##👍
##😎
##キ
##免
##费
##资
##料
##解
##ń
##ć
##港
##Л
##🍁
##ė
##霸
##ـ
##ض
##ʹ
##ƒ
##щ
##品
##牌
##ő
##մ
##ո
##կ
##门
##库
##か
##家
##国
##二
##癟
##ム
##ウ
##յ
##ג
##ם
##έ
##ω
##¢
##ą
##क
##स
##ž
##站
##ジ
##ュ
##性
##真
##→
##🏻
##电
##影
##集
##의
##投
##到
##，
##行
##能
##系
##ů
##、
##가
##ĝ
##צ
##ה
##·
##В
##М
##У
##Р
##Э
##ˆ
##¹
##【
##ộ
##方
##香
##会
##女
##数
##美
##人
##을
##月
##海
##്
##ി
##غ
##‹
##あ
##る
##ē
##Đ
##羹
##É
##👏
##🌿
##²
##し
##★
##プ
##争
##提
##现
##タ
##Č
##县
##最
##新
##ÿ
##🤗
##√
##Е
##快
##吗
##ი
##რ
##算
##ԁ
##😘
##白
##ไ
##ห
##和
##好
##ე
##ს
##ლ
##פ
##№
##三
##手
##看
##记
##录
##О
##Б
##😁
##ズ
##ク
##ذ
##正
##版
##が
##う
##ん
##ち
##と
##く
##ら
##っ
##て
##👈
##哪
##フ
##🌹
##爱
##ŋ
##ช
##β
##💐
##期
##も
##ロ
##🇷
##工
##✅
##✔
##С
##本
##🍀
##🙋
##♀
##♥
##论
##Ο
##أ
##ま
##道
##্
##র
##́
##规
##公
##式
##●
##하
##는
##北
##了
##作
##ё
##Ц
##П
##我
##以
##可
##ャ
##司
##خ
##发
##官
##广
##出
##安
##龙
##怎
##প
##ন
##ি
##ी
##ि
##主
##名
##য়
##Ð
##И
##К
##Ì
##‡
##স
##金
##க
##נ
##ल
##ह
##👇
##ҫ
##դ
##で
##φ
##ś
##ի
##고
##🎀
##游
##：
##✨
##玩
##😂
##球
##❗
##ש
##👌
##Ï
##た
##̂
##כ
##ל
##ʼ
##ニ
##繹
##な
##त
##定
##Π
##个
##直
##ؤ
##Ч
##走
##世
##东
##▬
##Я
##宝
##💖
##ミ
##里
##ả
##イ
##ٍ
##﴿
##☎
##지
##에
##坛
##界
##こ
##き
##技
##Х
##기
##व
##Ш
##ւ
##オ
##万
##🌸
##―
##🎈
##ド
##福
##势
##エ
##买
##ิ
##є
##今
##を
##ז
##ল
##十
##巧
##Ê
##🙂
##老
##ň
##Û
##ζ
##Δ
##コ
##≤
##交
##成
##💙
##西
##Г
##片
##江
##ო
##学
##六
##高
##自
##Λ
##Μ
##💪
##ٰ
##ٱ
##五
##内
##🙈
##川
##器
##З
##Ж
##ত
##प
##🇹
##ﬁ
##한
##💫
##山
##👉
##چ
##✓
##ं
##µ
##💜
##场
##ظ
##😔
##🌺
##қ
##☆
##😇
##ʿ
##城
##！
##ব
##್
##第
##য
##ो
##Á
##Æ
##微
##ء
##Φ
##🌼
##💞
##ấ
##枚
##Ø
##🍃
##〰
##।
##部
##─
##💃
##ക
##˚
##≥
##ǧ
##Κ
##♦
##ㅋ
##█
##红
##😅
##重
##Ž
##♡
##Š
##完
##😃
##眉
##⠀
##℃
##﴾
##😛
##ế
##⭐
##٫
##ệ
##県
##▪
##📲
##♪
##📌
##🙁
##排
##ª
##ư
##↑
##📞
##∙
##🔥
##📍
##▼
##ạ
##▶
##■
##蔒
##蓷
##▻
##🔹
##⋆
##․
##➖
##←
##쀀
##蓾
##蔞
##▸
##la
##er
##in
##an
##en
##ın
##ir
##ar
##il
##lar
##ma
##ek
##el
##ak
##le
##da
##un
##de
##or
##ler
##lı
ve
##iy
##et
##im
bir
##es
##iz
##on
##ik
##at
##ur
##ay
##ır
##lan
##as
##ün
##al
##em
ya
##is
de
ol
##ul
##ür
##di
##am
##ey
##dı
##iş
##aş
##it
##ah
##um
##den
##ların
##ım
##ız
##ya
##dan
##li
iç
##st
ka
##ıl
gö
##ları
##ok
##ağ
##ık
##ini
##ış
##ab
##az
##du
##ında
yap
bu
##ine
##ol
##ec
##inde
ar
da
##ta
##ük
##yor
için
##mas
##iyor
##esi
##mak
##ti
##üz
##leri
##üm
##dir
##ev
##iler
##eler
##tı
##te
##ını
ile
##cak
gör
##dır
##me
##ra
##lık
baş
##inin
et
##uş
an
##uz
##ği
al
##bil
##ce
in
##iye
##mek
son
##ut
kar
##oğ
ver
gel
##eç
##ına
##lik
ger
bil
##ğı
##us
ön
##uk
##ön
il
oldu
##tir
##üş
##len
##ara
##ıs
##larak
kon
##alı
##ib
ed
değ
Bu
##unu
##ez
##iniz
en
ay
##cı
##ması
##man
iş
olarak
##tır
##ro
##ip
##öy
##se
##anı
çok
##aha
ne
ist
##ından
##ca
20
yer
##ül
##mış
##ürk
##tan
##laş
##ed
olan
##lay
kad
##ap
##av
##eni
##ası
##op
##lama
##ka
bul
##miş
var
olduğ
##lu
##ibi
##ki
daha
##ör
gün
##yon
or
aç
##imiz
Türk
##om
yıl
##üy
kur
her
##aki
##ının
##ecek
##ılı
##eş
##eki
kul
sür
##ih
##zer
##ili
##ece
##isi
##alış
##bilir
çık
gibi
geç
bel
on
##ad
##ken
##aman
##san
##lerin
##öyle
kullan
uy
ken
##sa
##ret
yaş
çalış
##ıyor
##yla
yar
kadar
gerek
An
##eye
##ic
##ru
##ama
##let
##unda
##üt
##af
##os
##leş
##eli
##diğ
kal
##eh
##ımız
##lü
##ilen
##ers
##aya
##ilm
üzer
olma
ben
##’n
##larını
zaman
##lara
##ist
ola
##lem
##ark
düş
##daki
öz
##dığ
##öz
##id
##iyle
##eb
ama
bulun
sor
##ter
sa
sağ
ek
##cağ
tek
##iyet
##inden
##met
##şı
##oy
kay
tar
yön
##gi
dur
Bir
##iç
yan
##men
##dım
say
yaz
sonra
##öl
Baş
##üyük
top
##tur
##araf
201
##ren
##unun
##asında
oy
##cu
dev
##ınız
şey
##abil
##arı
değil
##uy
pro
taraf
##gu
##ep
kat
##ılan
##ğer
##if
##dığı
##yi
doğ
Türkiye
dön
gü
##ot
el
##ten
##ede
##ans
##larda
##imi
##ci
##maya
kap
ak
##deki
sah
##art
##ana
##eri
öğ
hay
##lam
##arak
ise
belir
##çek
yüz
##aç
hak
ev
yak
den
##diği
##dür
##lerini
##sun
şek
##ada
alan
##lk
siz
yeni
##lat
karşı
tak
##una
##erek
hal
##ef
büyük
kiş
##oc
##00
##kin
bak
##bul
##ley
##makta
uz
kend
özel
##kan
##tr
veya
gir
biz
söyle
##larının
##eleri
ilg
Al
##üs
sev
##iv
düz
yol
iyi
##elik
##enin
gerçek
insan
göre
19
ki
gen
ko
##ster
do
yok
##sel
##lığı
##re
ilk
##esinde
##ısı
##yan
##ram
açık
##eceğ
##mekte
##siniz
##est
##lere
##ünü
önem
böl
##yı
##uyor
##tık
bağ
##mesi
es
##larına
##iyorum
##rı
##ğu
iz
hem
##erk
yük
mil
tarafından
neden
ok
##ale
olduğunu
edil
as
göster
##iyat
##dü
har
##fa
yet
durum
##ran
##dık
##ğit
ort
olduğu
##emiz
##uh
##dik
##si
ih
##etir
tarih
##dece
##bir
##izmet
fark
##muş
seç
##larında
##tik
der
getir
Ar
##lah
önce
##lığ
##eğ
şekil
ada
par
İn
##liği
##maktadır
##eyi
##up
ser
##leştir
nin
Er
Ay
çek
ad
oluş
dün
mü
##sı
alt
##ven
##ac
##ıp
değiş
##ileri
##aret
san
##od
göz
##asyon
sır
##ıla
öl
öğren
##oz
##mektedir
##daş
Kur
##acak
##aber
kaz
su
##kanı
##dur
tüm
söz
er
hiç
ilgili
##ımı
##üzel
##iğer
##ocuk
etti
tut
alı
has
##nı
az
##abilir
aş
şekilde
İst
##raf
##tar
mi
hizmet
##ça
##ika
iki
bin
uygu
##ağı
##azla
##ulu
##tür
bur
ülk
##liğ
olur
tan
##han
haz
##tü
##por
##lardan
ın
##lerde
bilg
devam
10
##usu
##ayan
Bel
##esine
zor
##siz
fazla
içinde
##istem
##çe
at
duy
##erkez
önemli
sahip
değer
konuş
##ğitim
##olo
200
sen
Bak
##lerinin
başla
kor
düzen
##tu
sat
yaptı
hayat
##ayı
##esini
##ebilir
is
##gün
##maz
Ben
ter
birlik
##emek
dış
##sız
sonu
geliş
##azı
yay
ağ
bas
##ig
un
##sek
##lendir
##rup
Gen
##ındaki
taş
##dim
##ünde
Öz
arasında
##anbul
##lerine
##der
hat
diye
hakk
çalışma
güzel
bek
kim
##kü
##ilik
kö
konu
##meye
alın
kıs
hazır
##tör
düşün
diğer
##larla
En
##esin
##oloj
te
yönet
##dığını
olacak
##rün
##gun
##oş
İş
gelen
##eme
içer
ede
tes
##likle
##asıl
oyun
İstanbul
##ket
##ıcı
##gram
sistem
Mü
çocuk
birlikte
aynı
##ütün
etk
##eyen
yapıl
##ala
saat
olmak
arka
##ile
##üp
tem
Ak
##aba
##tiğ
##ne
im
mı
İs
Av
sadece
##ehir
git
mes
dönem
##mıştır
üret
güven
##ide
görev
##det
##uv
doğru
yapılan
ör
sit
##bet
ot
üst
eden
dik
##iyon
haf
eş
tama
yat
boy
##masını
çıkar
kazan
##cel
nın
##larımız
##ilerin
##lanan
##ye
##dar
AB
##iyas
##ub
##eniz
Ama
sav
iliş
dav
ulaş
farklı
##ivers
kan
##asar
kendi
##miştir
##’da
karar
##’nin
##sin
Or
##ırak
Kar
##olu
##layan
Kon
##nivers
##rak
On
##lerinde
nasıl
##ildi
bölg
##niversit
##luk
##leme
yardım
kam
##masına
Bil
Pro
##lak
bile
##ızı
Başkanı
ürün
15
tür
bırak
##yal
##larından
##dem
##iyoruz
##üne
bun
##anın
İl
##hur
##ilmesi
Bur
##ğü
##laya
##eket
##ing
##üç
tel
Son
sık
##diğini
##mez
##cü
##malı
başka
mal
belirt
##tiy
##kat
tab
sek
benim
##min
kit
ara
hav
##acağ
bit
##usunda
##esinin
##üyor
##’de
##lus
ik
mut
##ov
##mal
kaç
görün
biri
tekn
12
##uma
bulunan
gid
##eden
sal
eder
Ev
##gil
fa
##og
##isinde
kurul
##ünkü
gön
##ıldı
##ahat
güç
olması
##umhur
işlem
##net
##’ın
dedi
##ici
mak
yüksek
sun
##ER
##ira
##lerden
##AR
##lantı
##estek
##lük
Genel
##ri
görüş
Her
##ırım
sı
önc
##atı
mod
##ebil
##dum
##AN
böyle
##kı
##sam
oyn
##tal
kadın
kız
eğitim
##lerle
çev
##ob
##irket
yür
##onom
uygun
arkadaş
geçir
hakkında
##işim
yüzde
dikkat
üzere
ihtiy
sorun
bah
adam
##duğu
olduk
ala
üzerine
##rıca
Beled
program
##ıt
üç
##tırma
Mil
##van
##bar
##tığ
oluştur
##elerin
##mer
Gün
bütün
fiyat
##unuz
##ılır
##rar
art
##gan
genel
yılında
##imdi
##lerinden
##mi
mad
şu
San
##’in
tamam
proj
##las
bazı
##ge
##tım
##ümüz
##bol
Ek
hep
iste
##enk
tam
uzun
##mayı
kayn
destek
film
üzerinde
##gel
##manın
##lum
Biz
##cek
pol
##oğlu
##üçük
##lenen
din
maç
Tek
11
##lıyor
muh
##istan
Cumhur
##mem
ye
##elim
hasta
can
##irma
anlam
hareket
dem
##sal
kabul
##osyal
çöz
Ve
ifa
gerçekleştir
bana
kişi
bölüm
##orum
Dün
##sın
As
ediyor
kr
dil
##baş
##inizi
merkez
orta
ortaya
##ılması
yas
plan
haber
hız
milyon
res
Avrup
##çi
##üküm
##akat
ifade
Müdür
olay
bey
pay
El
##gı
kes
##ver
##umuz
##end
##efon
bunu
teş
##atan
##duğ
koy
olabilir
Ne
##ladı
dan
##okt
##eti
##suz
##’nın
mah
##çı
kolay
30
Es
met
##lamak
etmek
##indeki
Dev
mu
18
karş
üy
##ba
##ilir
Ancak
tah
##landır
gönder
##lerimiz
kom
seb
Başkan
Avrupa
##ort
yaklaş
##dından
Üniversit
yakın
sonr
ABD
dünya
##ele
konusunda
##isini
onu
##tığı
##ban
##eceği
söyledi
hafta
Yar
##ılacak
başar
tasar
ancak
##meler
##uru
kır
onun
Bakan
##tin
##kek
##ültür
yerine
##kara
##trol
para
şirket
his
##tif
Ara
öğrenc
yayın
##gin
##din
##aj
##azet
##mel
Kan
##asına
ayr
kez
bugün
##azar
kı
mev
##orm
##doğ
Yön
##oğraf
rahat
bilgi
Hay
##undan
##siyon
Par
##he
geri
##çok
##mam
artık
tanı
##urt
taşı
öğret
##tem
##cret
##arası
##yle
vur
han
ziy
##eşit
##edef
##ılım
Doğ
süre
##tim
telefon
tur
yapan
##ök
hiçbir
Ser
##per
##isine
##dın
biraz
edilen
Merkez
sonuç
##ınır
##unca
##bilirsiniz
diy
##mir
##madan
hes
man
##ime
##lo
##dav
yaptığı
##ayın
ekonom
ardından
gelir
##sanız
##ali
##kinci
uygulama
sıra
sağlık
##ıda
Özel
kav
uç
günü
ün
mer
##ince
Allah
##ılmış
At
##bak
Büyük
yanı
küçük
Yap
##oh
##eg
##landı
##mey
##nek
büy
takım
ban
bilin
beni
değerlendir
##sunuz
2018
Sa
##etim
Ankara
yen
vardır
##umu
14
geçen
Der
ber
Ön
Yan
##ize
##br
16
dak
##ilere
Bay
ses
dolay
##res
bağlı
burada
terc
hüküm
25
yine
##eceğini
kontrol
Top
##ıyorum
##ber
savaş
##izi
açıklama
Has
Sen
yarat
13
##ternet
##ch
araç
iti
İz
isim
hedef
müz
##uluk
Yıl
genç
##ünün
##sik
söy
çeşit
##üc
eski
##cağı
herk
Hal
tat
paylaş
##ust
altında
##na
içerisinde
##asını
##ent
bar
devlet
Böl
##cad
##larıyla
anlaş
hemen
kapsam
##oğun
bildir
##müş
ziyaret
##amp
siyas
##isyon
##düğ
mas
id
kurum
Mah
tr
kısa
araş
dah
birçok
pek
##meden
Eğer
yaşam
mey
ücret
bunun
ta
Mar
##ost
##ıntı
##abilirsiniz
size
tav
seçim
sektör
cez
sab
kil
mem
##duk
Yeni
##kün
Dr
##ektr
##iyi
yaşa
##tiği
olup
ait
##sınız
##isinin
##sil
##üşter
yapmak
##ekk
bizim
indir
olmuş
olsun
kalit
Tar
17
##elen
inan
##uyu
dir
Eğitim
toplum
anla
Bunun
##ekli
gereken
kaynak
oda
##za
İngil
fır
##meyi
istem
Haz
##ışma
##ünüyor
bor
##otoğraf
ders
com
suç
tercih
geldi
##obil
##aliyet
##üb
##diğiniz
##ilmiş
Daha
##üsü
ask
##diğim
##ayet
geliştir
##masının
tale
Üniversitesi
kol
zar
başv
erkek
sak
Ayrıca
anlat
Tem
tekrar
soru
##rat
##luslar
sınır
Bey
ner
Öğ
oran
müm
Çünkü
##erj
yağ
firma
##umlu
zamanda
##’a
##abı
##gın
##ve
model
İç
##amaz
istiyor
##erli
incel
yaşan
dönüş
##bu
ma
kitap
##lim
Dünya
ilişk
değişik
cev
oluyor
okul
##cağını
çalışan
uzak
nedeniyle
sosyal
değiştir
Ko
vatan
uğ
halk
24
Amer
100
##teş
##ınıf
##deş
##ünden
##asının
yani
00
per
mek
##fer
çağ
Hak
##iyesi
em
otur
koş
##lüğü
mümkün
##ET
itibar
senin
veren
temiz
##hangi
##may
199
##ola
##alt
Ban
##utbol
İlk
mücad
Kas
sey
ağır
##leyen
Ok
karşılaş
##luslararası
##lek
##dak
##taş
renk
yeniden
beraber
##doğan
##imde
##miyor
##oloji
si
##ışı
Kom
kaldır
TL
gi
##imizi
boş
birbir
engel
##EN
##ecektir
Kay
sanat
##for
Tur
kesin
##bi
ila
oldukça
madde
##fen
##ari
öldür
tedav
##dana
##aten
kut
ilç
mis
başladı
hava
##ümü
Oy
##AL
##lemek
##lında
##yanın
##imizin
##manız
##fes
mar
öde
Ey
##tiğini
##pr
özellikle
müşter
##lanması
ele
##yacak
saldır
Gör
ikinci
ister
söyley
konusu
##ülen
rağ
##pan
##vet
##elere
##mesini
kas
yorum
AK
faaliyet
##unuyor
yapar
elde
Os
gece
##lül
bay
Ah
sar
##lacak
##lüğ
takip
etkin
##apor
##fet
rek
oku
üzerinden
yönelik
##ısında
##esinden
toplantı
veril
şeh
yapı
##şa
##tiv
##şam
##lardır
boz
ac
yemek
yatırım
mik
##of
50
##ilerini
##aln
ilişkin
##elerde
diz
spor
ona
düny
ail
eğ
rağmen
##lanmış
fotoğraf
gez
##uştur
##dül
görül
##ga
num
dair
ortak
##su
##yar
kork
##ocu
##ğini
ilet
teh
temel
geniş
grup
21
##üf
tük
kötü
yönetim
iy
Sağ
##be
##ınav
yetk
gazet
##iyeti
sok
Alman
olmayan
şimdi
olsa
##mı
##uan
##ha
öyle
herhangi
gerekir
anda
##ow
##taj
Uz
##lis
##ere
av
adı
##icaret
##ört
çıkan
almak
Devlet
##leriyle
yüksel
##lış
##alnız
çiz
##ayda
##diğimiz
yöntem
hatır
##set
aras
##ela
##ate
dışında
iddi
##okta
Dem
kültür
##ilerine
kah
Erdoğan
sizin
##ılıyor
##rim
Har
serv
##ift
ayrı
##larınız
##ekkür
##yo
aşağı
##meli
##laması
Rus
##can
##ukuk
bize
##muz
özellik
Ada
cin
boyunca
##HP
Gel
##cısı
##eyim
amacı
##ezon
sürdür
kuru
istiyorum
Meh
Belediye
sana
Ma
##kaç
çar
2017
##esiyle
##iştir
Ot
##elerini
##masında
gider
dok
##ant
##azi
nun
gerekli
Ali
örg
zorunda
##ısından
satış
##efer
seni
internet
##eğin
ayak
##ınca
giriş
öner
##anıyor
##ıyoruz
ortam
##İN
alış
lis
aldı
olabil
millet
##AT
##imize
giy
##izm
demek
Kal
##cılık
pat
dakika
##isay
Em
dol
bab
karış
çözüm
##ılma
dolar
Muh
şekl
aday
gerçekleş
şöyle
kuruluş
##lanır
##lanma
dolayı
değildir
Kurulu
##meyen
yüzden
nokta
izin
Su
edecek
Tr
Gü
köy
##mesine
vatandaş
Mes
Osman
hızlı
derece
Çok
##ener
##dığımız
##cut
##sat
##inize
verdi
adım
Siz
##AK
hesap
fik
hey
ihtiyaç
##kın
durumda
sınıf
##alar
gerekiyor
yarar
gec
Geç
##eci
22
of
organ
vak
Mer
düşünüyor
yaptığ
Yani
isteyen
##emin
Sav
##sak
halinde
çünkü
##EL
Şub
##ebek
##enek
Ab
ekip
amaç
Kı
gelecek
des
##ült
geliyor
Ch
yara
şehir
unut
ba
tarihinde
Tekn
çevr
Do
kardeş
##menin
vardı
yaklaşık
nde
Kul
toplam
ölç
##erson
##matik
rak
teknik
##diler
med
zarar
belg
part
##manı
kalan
kayıt
fayda
ann
##laştır
##vek
##ğa
##liyor
Tan
elektr
polit
saç
şart
teşekkür
##mıştı
tep
##ES
Hav
##lif
##dip
##oktor
izle
enerj
Yük
##ii
##ade
yardımcı
##inci
##elerinin
##ırı
İnsan
##pit
Uy
##’e
##isk
bakım
cih
um
##meleri
yapılacak
çeşitli
##ni
adet
##ilerinin
Kor
##ina
mez
Hat
##dığım
sahibi
##isayar
biç
yoğun
yanında
##’un
parça
tart
##tep
Kad
Mehmet
kamu
##lilik
yolu
men
23
dayan
oyuncu
##lâ
##emi
##bakan
##IN
davran
araştırma
sezon
##luluk
silah
##ast
##uvar
##lım
vide
ora
##etin
yazı
Aç
##ýn
##maları
başkan
konuda
türlü
herkes
##sen
##dıkları
Cumhurbaş
##şık
futbol
benzer
sıcak
Bun
##talya
net
edin
Kara
Kap
##ton
Ör
##usun
##afa
beklen
##eği
##üğ
kapsamında
Böyle
çocu
hale
##alle
##lin
şeyler
sayesinde
ederek
İzmir
dahil
temsil
cid
hoş
##mişti
biliyor
ku
##larım
şark
verilen
Şimdi
Merkezi
fin
##unan
Bar
tarihi
İngiliz
diyor
##redi
terör
malz
yalnız
##mat
ettiği
mevcut
det
##ıyla
rapor
pazar
##bah
talep
gerçekten
şeyi
##dığınız
2016
##imin
konuştu
##asyonu
st
na
sürekli
ana
sebep
özg
milyar
yaban
işlet
##şehir
Han
çıktı
##ıldığı
ip
##lüm
sonunda
##iran
##olojik
kaybet
40
alıyor
##ektör
Tüm
Tab
Ger
May
polis
birkaç
sin
Sur
örnek
yürüt
sırasında
insanlar
##osu
olmaz
nda
lid
“B
##ite
piyas
##İL
olmalı
##alım
ilan
götür
##onu
##rik
cevap
yık
doğal
##tay
##AS
##azım
Bakanı
##iliği
##edik
Deniz
Kasım
##’ye
tespit
Tak
başarı
nit
##ebilirsiniz
##adolu
Çocuk
##edi
##yum
##imleri
##acı
##lamaya
##ova
kullanıcı
Milli
alır
Söz
mesaj
it
açısından
##iir
##anlı
##kem
ruh
000
##üst
Af
##eder
üniversit
ekonomik
##ormal
am
adına
nedenle
mağ
Belediyesi
giz
dar
Eylül
##İR
##layacak
##mayan
kalı
ayrıca
##izyon
Bugün
##ohbet
ölüm
asker
##düğü
yapıyor
zaten
canlı
uzman
Yaş
##adde
yerde
dost
hangi
olacaktır
kapat
##AD
başarılı
sınav
##ampiyon
belli
##ij
ah
Say
##luğu
tık
güvenlik
##layarak
Mart
üretim
Yardım
##oya
kişinin
##esel
hik
dile
Bakanlığı
##lıklı
ceza
çoğ
##evi
Evet
yanlış
yurt
dö
oper
kayb
Res
##inc
##otor
##elerine
Kat
sonucu
##yız
In
yere
yaptık
##luğ
Yönet
Benim
Ter
##eyin
baz
if
oğ
##yas
Temmuz
Ro
sig
##iğ
Man
kendini
##ser
verir
puan
Anadolu
##eceğim
bilim
##anlar
bayan
arada
sizi
yıllık
##emez
##gar
##üncü
vermek
Orta
Parti
##dük
akşam
beş
Must
Şu
##dığında
##air
bulunduğu
güçlü
##medi
kir
mutlu
##mıyor
dört
Spor
düzenlenen
dal
hastan
##ısıyla
sayılı
itibaren
Fran
geçmiş
Haber
nak
Mec
##lıkları
Kür
##ıza
##ediye
##ilerek
##atif
##lığını
Ol
yabancı
##EK
28
Ver
verdiği
tasarım
Ad
inşa
yum
banka
##lıkla
##aşı
don
##iliğ
##ısını
belirlen
doğr
##AM
şeklinde
Sev
##isan
##ern
işaret
nokt
hukuk
##elerinde
Genç
Sam
Millet
ülke
2015
##bilecek
du
yav
##ayi
arasındaki
list
detay
dos
gru
kelim
ab
sistemi
##gisi
başına
Fakat
daki
##dikleri
##spor
##lerce
##malıdır
Başbakan
##diş
ey
Mustafa
##liğini
Irak
kaf
##iyim
adlı
##AY
görüntü
kab
imza
örgüt
##EM
ham
tamamen
Beş
cam
sol
fakat
Bah
artır
bi
aldığı
buna
Et
tüket
Tel
belki
##tıyor
##lüyor
##emal
dep
##retim
iletişim
##alan
##dek
##ati
##fak
##oda
bilgiler
##üle
Güven
çift
##asa
##tın
for
##uzey
##’ya
##nun
katılım
Ekim
##lığın
şans
27
kira
26
Mayıs
Müdürlüğü
edilm
bizi
İslam
varsa
yapacağ
kullanılan
Yüksek
tanım
##ukarı
beri
basın
Haziran
kullanım
##ladığı
##’dan
gar
##ydı
yılı
tip
yapma
Yak
Mal
cihaz
##sta
soğ
hayvan
Bunu
##rafik
kuş
##ucu
##uç
olmadığını
##diğinde
Mak
ciddi
person
meydana
##ünüz
ateş
De
bes
aslında
amacıyla
şah
##iydi
etkil
yaptır
##isel
haline
edildi
##sine
##eceğiniz
##’den
düzey
düzenlen
kurt
##lamaz
##bo
##imler
##ân
Hem
öğretmen
sebeb
servis
##uvvet
Pol
eğer
yi
##atürk
##neği
bağlantı
##eşil
nerede
oluşan
deniz
##ras
Burada
198
##mar
Kit
Prof
##brıs
isten
sorum
CHP
##engin
##lığa
##’nde
teklif
alma
Çalış
##ınızı
##ören
##ia
str
##İK
ark
Ocak
Bas
eser
##rac
##çev
yazar
##inç
Cumhuriyet
##lıklar
##ud
##blem
gerektiğini
Yönetim
Kim
2014
Bul
hatta
ihtiyac
##emizde
##ücü
##elikle
katkı
Fak
##düm
savun
##dıktan
##lulu
yoktur
##hal
##altı
lira
##’nun
çer
iler
Sadece
bilgisayar
dünyanın
gol
siyasi
doktor
vurgu
satın
başvur
insanların
key
Kır
##siy
##larca
##one
web
vaz
kent
sayf
##ımda
sözleş
önceki
yana
##laka
teslim
##teki
Kıbrıs
##adan
##üslüm
Ahmet
##tiğimiz
##UR
kims
üz
müzik
İşte
ediyorum
29
##50
uğr
işi
##etr
Ağ
##işi
Sal
açı
kapı
merak
Dış
tec
aracı
emek
yarış
hisse
dek
süreç
Aş
se
##ind
durumu
hala
sohbet
##masından
la
etme
araya
##üme
yapacak
sabah
Nisan
##ısına
Diğer
##abilecek
içine
##aşa
dönemde
otel
rol
##forman
bağım
##yım
karak
Kr
onları
Lis
Atatürk
##lanacak
edilir
Tarih
##etik
tehlik
stan
##fi
##amız
ilaç
##uar
alacak
Sar
yaşayan
ro
##imli
ic
##OR
kalk
ıs
uyar
##kası
Sosyal
altına
ödül
kişiler
bulundu
Ga
##gen
düşük
##lanıyor
lazım
##lerdir
akıl
aktar
##işleri
##go
defa
başvuru
seviy
Demir
Yaz
uluslararası
Firma
fir
koşul
arama
çevir
dağ
Ken
beyaz
emin
##zı
alınan
hâ
kararı
günlük
##onik
St
##vekili
koru
günde
hayal
##ON
yoksa
halde
eğlen
##duğunu
##mız
ileri
görmek
##tığını
Cumhurbaşkanı
##cağız
yeterli
31
sonrası
başlayan
Birliği
idar
kullanıl
eksik
ayında
##ansız
sürec
tesis
Kend
##hend
re
miktar
##cağım
##rin
mücadele
video
çerçev
Özellikle
Proj
oyna
Kadın
Sağlık
problem
##ütfen
Aynı
iddia
##line
##eksiyon
Se
##leti
Yayın
##taki
##lığına
sonuc
##ılabilir
##mayacak
Halk
ten
##cılar
toprak
olmaya
kimse
Kültür
##LAR
çarp
##enüz
Rusya
##eğen
Almanya
ettik
##madı
belirten
önünde
kart
değişiklik
memnun
##gesi
##lasyon
Oda
edece
##ilecek
boyut
kayde
teknoloj
##ınıza
##ku
özgür
##eceğiz
##itesi
##say
##üler
##iliyor
sayısı
Amerik
##meniz
Müdürü
##etler
2013
Kam
bulunuyor
malzem
##lisi
Kız
Ka
Amerika
Bor
##lev
bula
Br
##ke
marka
olursa
sıkıntı
##deniz
söylüyor
ettiğ
Aralık
sefer
makin
##mızı
##ımıza
normal
tarif
parç
başında
##rek
##lusal
sene
##inizin
çal
Can
konuşma
demok
##ğust
orada
anlay
fak
Kö
##İM
##ratik
##aliz
trans
lider
içeri
bulunmaktadır
Osmanlı
şiir
ünlü
##orta
##med
buluş
Çin
borç
##muştur
60
düşünc
çat
artış
işe
##neğin
Ülk
##lenme
##pek
##dam
Gül
yem
##üyle
##geç
kala
sur
Bağ
zengin
##ete
##veriş
Hizmet
Kurul
##par
##evizyon
ticaret
mücadel
resmi
deste
Sür
##ğustos
mekan
##enler
hap
##egor
##ilendir
yandan
güncel
##AŞ
2012
##lardı
yı
bitir
durumunda
performan
kadro
etmiş
devr
##rail
##ırken
kredi
##zu
##İT
pan
Per
##niyet
##best
motor
##dun
##edim
Türkiye’nin
hisset
asla
##amı
saldırı
Oyun
risk
##ard
olmadığı
tedavi
ayır
Yer
acı
##istik
min
kısm
Program
mük
ayar
şid
Müz
dağı
##üph
##terek
etkili
eleştir
fikir
karakter
Gazet
soy
##ımızı
##izik
##yonel
##sul
500
onay
##eyle
Film
hizmeti
numara
onların
kurtar
Yunan
Dan
şarkı
test
##içek
##sef
##ly
poz
Kemal
dolu
deki
##son
yansı
##seniz
sırada
enerji
yapılması
Dav
##ısının
fırsat
edilmesi
##gam
Sor
kok
##kenin
işte
sayı
##ılmaz
Fener
form
##imizde
##ağa
##cort
veriyor
gül
##fesyonel
pak
##bay
Fat
##larınızı
Sır
##ullah
uc
etkinlik
sayfa
##omobil
Açık
bat
Bazı
##sini
eğit
bundan
##abet
mutlaka
merkezi
##elerden
kural
görüyor
Öğren
##str
##eliğ
Bana
medya
kendisine
##ulması
Onun
kaliteli
elektrik
bebek
Fakült
##eyn
tane
operasyon
Part
##ıma
Sh
Suriye
derin
fon
##tiler
##meni
##ult
yeri
##ulan
Ağustos
rahatsız
ekran
İyi
##hendis
##’i
Ba
ederim
##ğın
##era
olun
girişim
davet
sunu
Dur
##aza
##tere
Tay
onlar
sonrasında
Gir
sayıda
esas
personel
##dart
Sab
bl
##nak
cep
##asıyla
##uzur
Hastan
##öğ
tas
##üper
Büyükşehir
##ene
Uluslararası
##ST
belirtti
İki
##umsuz
Şubat
öğrenciler
çalışıyor
##ciler
kaydet
##atör
kampan
Diy
Sonra
aile
##iri
Müslüm
##ilmiştir
##bur
##laşma
##kadem
sizlere
Sayın
mark
Sanat
doldur
Araş
##hat
hikay
##iktaş
sap
adres
dışı
##âr
##yıl
bahis
sağlamak
aray
beğen
zam
ül
35
Gök
yıldı
##bahçe
yerleş
yaşında
henüz
tartış
dışarı
##cil
aşk
Antalya
##adi
birey
İh
tabi
kop
##memiş
çocuğ
Hol
başlat
##iyah
##LER
gay
##ital
aylık
güc
keş
##gili
yaşanan
Belki
yavaş
nüf
eylem
tutuk
##20
day
uçak
olmas
Türkçe
##gör
alanında
yapmış
Sistem
##siye
ap
##ücu
Türkiye’de
dam
İsrail
seçenek
müda
benz
ilgi
hayır
##ileş
yada
##mayın
yönetic
deneyim
po
##ger
##lenmesi
döv
karşısında
##hi
##dıklarını
belirterek
##ivil
yıldır
##ımızda
##tuk
cil
oto
Tes
nes
Fr
reklam
##ülü
##dikten
##artesi
sağlıklı
İran
##ork
Beşiktaş
İk
Köy
Göz
altı
sem
yapılır
##Ä±
anne
##esindeki
##miyorum
başlan
esn
##muyor
##larımızın
yayım
yukarı
Yüz
##latasar
açıklamada
##ümüzde
Peki
##aka
##to
ücretsiz
##tern
hükümet
##ediy
197
##ED
neler
##LI
bal
##latasaray
birisi
##onya
mec
Seç
##’nda
Bütün
değerli
Fa
##ou
##sim
çalışmaları
izley
kendine
heyec
##AP
##imar
gösteren
##şey
##esiz
##asından
buraya
##resi
pas
##yse
Bal
##yen
yetkil
##edeki
araştır
alanda
Güney
##ımızın
##lediği
##larımızı
##layıp
duygu
onlara
##atej
Bursa
hüc
##zon
##İY
mobil
kaldı
olduğuna
yazılı
eve
proje
##ayla
Eski
madd
##adaki
##layın
süt
##UL
tahmin
yaparak
Yet
sağlar
kanal
oyunu
bunlar
Ber
piş
öden
Gerçek
Teknik
olmuştur
##ahim
Hayır
Hiç
eşya
TÜ
Mahalle
##dit
Ticaret
##cisi
ettir
##racat
##sem
ikti
Dön
alarak
alanı
Derneği
güneş
45
##eygam
Galatasaray
##rika
Gazi
kür
##ündeki
Go
diş
takdir
2006
işbir
Çev
başta
##estiv
dünyada
Üst
##ınızda
musun
##’ı
bilir
##anan
konum
zev
yapmaya
sitesi
##oca
2011
hastalık
meslek
dök
Değ
Aydın
##ron
##ham
ür
gide
sonraki
yanıt
düşür
##sinin
yerinde
##rüb
Az
##çak
sağlayan
##ura
Sat
şiddet
##maktan
##ipar
not
##tarı
##sas
Fenerbahçe
meş
yeter
uygulan
Fakültesi
##’te
Mur
Bankası
işç
##liğe
faiz
öne
Küçük
Kullan
No
##liğinde
almış
olumsuz
döneminde
alb
80
önüne
politik
yerleştir
bed
##ıştır
Yardımcısı
The
giden
kıy
##liğin
İngiltere
Kürt
##tepe
##emey
erken
kuvvet
Fil
##inizde
huzur
##ılmıştır
ted
Hayat
90
def
Bab
arası
tutar
Lig
##mür
##dağ
yaşama
büt
Cen
##diklerini
müdür
yiy
hayatını
##uc
serbest
taz
Senin
sona
şik
öğrenci
Dair
##ersin
Yat
hafif
bol
ces
##eygamber
şüph
Eş
eg
alıp
##ılabil
##elerinden
##memiz
taşın
##ise
harika
Vak
##tuğ
##ımın
Araştırma
##ledi
Val
##elç
Te
##nam
pen
sokak
ödeme
05
##ze
##iber
kesinlikle
yıllarda
##err
politika
##kar
kullanarak
etmeye
Ürün
##DE
##form
içi
türk
Buna
Samsun
Cam
##ros
##lal
##inal
Hava
kanı
##tak
ülkenin
##elerle
İngilizce
üye
Fransa
sert
gördüğ
Düz
atı
##dat
##abzon
##lamış
profesyonel
doğum
otomobil
Doğu
##biyat
birinci
##lendi
vazgeç
Ya
Re
Ap
70
Çan
yasa
arac
##raman
##va
Gö
düğ
##emmel
yaşındaki
ışık
baba
##malar
gerekmektedir
##tis
edebil
gal
be
##lerim
bağımsız
sil
post
“A
##yip
Bizim
##ısır
##anet
şaş
##ore
peş
##’ta
duyur
Yine
çoğu
##ildiği
##pa
çap
bilgileri
New
##ekim
fil
##ses
sonucunda
##amam
psik
insanın
AKP
##ebilecek
ton
bunların
Bilg
baskı
kurtul
Alan
parti
##haba
resim
programı
Yılmaz
hayata
##ılış
tatil
Ham
basit
yerel
kilo
standart
gören
enf
##IR
ürünleri
davranış
rad
Kah
##elt
bunları
misin
tarz
ata
kategor
askeri
Neden
kazandır
yılda
##har
çıkış
olumlu
##irken
araba
Güzel
arab
dakik
##sizlik
yaka
Artık
kavram
##latform
##unları
duvar
üçüncü
##larındaki
altın
Li
yazılım
##lığının
36
##elidir
pop
##ons
tecrüb
ihti
bazen
olmasına
korun
isimli
sorunu
tören
lütfen
lim
yolc
##cilik
##mit
katıl
Meclis
##diğin
##gulama
01
ediyoruz
Yol
alışveriş
bakan
Den
atan
##mamız
##iyiz
##ezz
##ultan
the
##dal
cen
başlar
Tam
Trabzon
günlerde
##ww
##ink
vücu
##iyatro
##lenmiş
##mesinin
Kaz
##liler
edilmiş
##isin
##iyorlar
Bölüm
Ün
yetiş
nedir
zorun
Haf
##isinden
çocuklar
ez
##mur
yor
196
##lanmıştır
amel
yapabil
lisans
##arım
##ılarak
gaz
Gür
del
##yası
Sah
##liye
televizyon
üyesi
aya
dosya
##erken
eşit
##liğine
kendisini
##iyordu
yola
ren
##iği
edip
nef
Müslüman
fiyatları
park
tavsiye
##ond
yıldız
##lerinizi
çalışmalar
kaçır
azal
yetiştir
yapıldı
İlçe
Şah
Hep
##leşme
sahn
Sana
And
şer
##ogle
köş
anlamda
sürede
##are
kendisi
Ann
##iyer
##uğ
Sak
32
sorumlu
Böylece
##âh
Uzun
kalp
##ayıf
Sin
biçimde
oranı
arttır
yararlan
km
Hüs
taşıma
giren
şampiyon
öğretim
Mev
##arken
tanış
Aslında
kitab
Pazar
##urken
##üstü
aydın
sine
##ezer
fizik
##KK
gizli
##isiyle
düşünüyorum
evde
www
salon
##obüs
##izasyon
##co
##AB
##uldu
sunuyor
Kıs
Le
##ğan
kişisel
Kuzey
fi
Güvenlik
yılın
performans
Okul
##her
and
Bayan
olmadan
ef
ref
##oyu
olacağını
Şirket
Am
Önc
##sinde
Üç
verecek
yalan
09
tez
beden
belirtilen
istediğiniz
çab
##ack
##gıç
##avi
kem
Serv
katıldı
modern
TV
Kurum
##’daki
##rem
Sek
##orn
##ücut
ölçü
2010
edeceğ
##başı
##cusu
ordu
yasak
##cer
##uyorum
##usunu
ortalama
##cık
sahiptir
paket
geçti
“S
etraf
sivil
uğraş
Firmaları
Üy
etmektedir
saygı
##hale
vergi
kıl
##alim
gem
##çesi
“K
##yer
milli
gerektir
yarı
##bat
asıl
yalnızca
yürüy
02
kans
namaz
red
yaygın
keyif
zevk
dahi
kara
Arka
Amerikan
cinsel
bilinen
bec
##daşı
durdur
çıkıyor
Beni
olmasını
hakkı
kişilik
Bayram
gelmiş
yüzünden
##erseniz
Onu
açıkladı
genellikle
toplu
##gal
hata
##ipariş
##iyan
Mas
transfer
Öğret
dava
kurulu
mükemmel
tatlı
futbolcu
biliyorum
##erler
düzenlem
nedeni
##ire
öncesi
kış
aşırı
ortadan
mahk
bahse
Hakk
Komisyon
##ord
##ersiz
##urum
##bette
yapım
odak
Başkanlığı
##süz
Arap
##lardaki
Eur
birini
##book
ifad
avan
kapalı
bom
ism
##sında
##ısız
Tasar
Bin
2005
##latı
##ümüzdeki
Ekonom
Madde
##’na
Bat
AN
imkan
stratej
kapas
danış
##landa
soruştur
ide
ihtiyacı
istih
##üny
##emen
##ag
##uman
terk
ucuz
kaydetti
##ulmuş
prot
##kale
Kitap
bö
çeken
ısı
kırmızı
tuz
mo
üzerindeki
konut
pla
Mic
af
anlamına
ülkemiz
kriz
Taş
İm
Mut
müşteri
Örneğin
Batı
sp
33
##landığı
Cez
##ula
kanun
Tah
olduğumuz
geçerli
grub
itir
##İS
Elektr
##ekt
getiren
Mod
##kiler
##irler
Fransız
##dığına
kalma
bekliyor
Tat
Şeh
civ
ha
önlem
uygula
işin
##UN
çiçek
##masıyla
harca
edebilir
yeşil
##layıcı
göç
yerini
İkinci
çay
etmesi
Kol
yüzyıl
Yas
sağla
##mada
Var
diyerek
bulunma
aşağıdaki
buy
barış
##ayım
##ong
ilgilen
Dir
Hasan
sik
süresi
##ukat
ihracat
imk
hus
##liyet
Park
##memek
##icari
siyaset
Hüküm
##yap
karşılı
ht
##lari
avantaj
söylen
Yıldır
hesab
beb
Bek
##IM
kısmı
Yok
diren
Rum
##meyecek
doğrudan
##lığıyla
##yet
##ğında
bon
istik
zayıf
Nur
##gaz
2004
##ancı
##sey
vakit
li
##ekil
##emiş
Şampiyon
saha
dolaş
##İZ
##ai
gur
gelin
uyan
Hz
Seni
diyen
##hane
##eytin
gönül
kişilerin
Tanrı
şif
##imden
düşman
suyu
ima
##lerimizi
dokun
##ulur
Milletvekili
verildi
##udi
gıda
##ınar
Pat
##iya
hepsi
escort
temin
herkesin
çerçevesinde
finans
##jans
sağlayacak
bence
##10
##utan
içerik
##acağı
siyah
şar
##çiler
##ecep
soğuk
ayı
Şehir
karıştır
##AH
yakala
bende
##sur
güvenli
Murat
Fatih
##brahim
##do
rakam
##AZ
şiş
##mediği
“T
mon
ir
##lıkta
Un
##bin
##etrol
tır
ettiğini
Anay
adını
Jap
etkisi
Düş
olduğundan
istedi
mus
gitti
kayded
hizmetleri
duyg
Bit
Değer
derec
çaba
##his
##ilebilir
yönetimi
neredeyse
Sultan
doğrult
iyileş
VE
Kanun
balık
##’deki
olanlar
nitelik
mahkem
koruma
ters
vb
Sanayi
##ation
imz
300
yatak
müdahale
34
##’ne
endiş
Mahallesi
filmi
çoğun
mesaf
##ry
Kab
birden
Cumhuriyeti
lig
ler
sağlaya
Car
bahset
Web
boğ
##tey
katılan
##larımıza
öngör
le
##likleri
ödem
söyleyen
verilm
iptal
özelliği
krit
reh
giderek
yapabilir
maliyet
##düğünü
##MM
tehdit
Mahkem
##ator
##zi
08
##rum
Yıldırım
##ılıç
kahv
Din
teb
bina
##tacak
Recep
##edek
PKK
##lığında
fab
ülkede
gündem
iktidar
mesel
Feder
birik
istek
ameliyat
##arında
metre
##tedir
kağı
Gru
##mail
Dil
teknoloji
Erkek
aktif
dedim
##uklu
kendilerine
##’yi
##ıklı
detaylı
lezz
falan
boya
##yüz
belediye
##köy
gelenek
anlayış
yapılmış
birim
pozisyon
bakış
##ock
Ac
gidip
##ane
şim
farkında
roman
##ternatif
##ümüş
##estor
sonuna
almaya
lik
İnternet
vermiş
2007
gelip
içeren
##lanarak
cüm
başlıyor
Çar
Pek
##erim
03
##vik
üstün
insanları
büny
getirdi
yarın
Adana
parçası
tren
alına
2000
içindeki
##ck
istedik
bür
anlama
şub
önceden
Çağ
ilçesinde
##diniz
aşama
İbrahim
kus
vit
ekib
Google
##istin
işler
had
##leyici
##ıf
##uzu
Koca
Herk
geçiş
Güneş
##jan
seyahat
So
##makla
##OS
yatır
ant
ince
##öğretim
##OL
yaparken
sigorta
alım
Sey
dünyaya
becer
##ner
##liyat
şikayet
hır
başkanı
İspan
##tp
doğrultusunda
Tayyip
sıf
tartışma
düştü
taşıyan
tarım
heyecan
sanatçı
##üya
açıkla
eğitimi
olduğunuz
##oto
ayrıntı
belirli
##land
##amet
zih
##yken
##doğu
çağır
rast
##acağız
Geçen
Hasta
kullanımı
##ındır
Men
olanak
İdar
##ýr
vücut
##uva
ürünler
seks
##ıldız
şehit
görünüyor
akıllı
saf
gücü
birinin
Partisi
demiş
eklen
galib
bölge
##eğe
AL
komp
##ie
Hatta
cm
süren
##all
Met
Cem
##int
kod
gr
Alt
##eğini
##cının
işlemi
##ahmet
##dün
Karşı
bölümü
##tion
deney
Dışişleri
##ht
dizi
klas
##dılar
platform
arz
##uluyor
Hüseyin
##kırı
dis
bölgede
zamanlarda
online
şeker
inşaat
oldukları
Sig
##afir
mezun
##ell
Konya
##celi
ağaç
Sarı
06
##iklet
##ılmasına
##SK
Fin
##teşem
duyar
Zaman
##mamış
inanıyor
kanıt
kere
##fı
demokras
##iyorsunuz
bayram
fat
dikkate
hediye
55
kurulan
Abd
##lav
##sını
kalır
önemlidir
##embe
kli
Kup
##luluğu
2003
olası
verme
hazırlanan
##urta
##cebook
Ge
2009
karşılık
##usuna
Öğretmen
ade
Altın
ettim
##uf
##liğinin
yasal
II
2008
tarihli
HD
2002
##stit
Mus
trafik
Yah
yaşlı
sorumluluk
##ho
albüm
mat
Tıp
Med
dönüştür
07
##ess
Mac
çocukların
Nasıl
Birleş
##ılıp
##omet
48
hakim
şeyin
##allah
alk
##emesi
Plan
kesim
okuy
##manızı
##TL
binlerce
Si
çevre
analiz
hac
Zira
##ijital
Sü
site
özellikleri
Ed
Futbol
ins
dey
duruş
bağış
Bunlar
Of
##lor
##düz
ondan
##leriniz
sanki
sağlan
##müyor
Kanunu
Sit
denetim
38
##imizden
sipariş
##kaya
Emniyet
##ice
demektir
hapis
otomatik
##maye
öt
04
kıya
Beyaz
Oğ
##qu
hazırlık
DE
Dolay
değilim
ismi
kale
serg
azalt
Ömer
##lemeye
şaşır
cok
Gar
tabii
yönlendir
tepki
37
gitmek
yenil
##eliği
Ana
gidiyor
Bundan
TB
tanın
istediği
##ferans
lar
çıkacak
bulundur
##irv
##gre
##ahtar
##acağını
memur
Kamu
ilginç
##ikat
kızı
Mon
alabil
##ick
ilişkiler
kiralama
Erz
sakin
##diğine
geldiği
Hır
müt
süreci
diler
toplumsal
umut
hük
##ıklık
##amazan
Süper
##rom
sim
düzenli
oğlu
ekley
##lıdır
deng
##duğumuz
kök
ayn
##arlar
okuma
##ilmektedir
eriş
bekle
Peygamber
##gılan
Sonuç
dolayısıyla
##übü
demir
sanırım
yıllar
görülen
Sp
##oj
uzat
hızla
güvenilir
alınması
Savaş
##etleri
etik
##mesiyle
etkilen
yargı
suy
##ağın
Hastanesi
Fer
kalın
kitabı
sarı
zamanı
hissed
kamp
##enn
bilmiyorum
Bilim
##ment
gösteriyor
fer
birer
Muham
veri
##IL
idi
sorunun
BM
bozuk
ticari
##elek
adamı
İliş
http
##undaki
MHP
##ÜN
kişiye
hassas
kadınlar
Kendi
##ksiyon
##sit
sinir
modelleri
mahalle
ediliyor
alternatif
##nik
sebebi
cilt
iken
büyü
girdi
bedel
otobüs
Kil
gerçekleştirilen
kulak
öy
##ilerden
La
ulusal
alındı
itibariyle
uyum
kendilerini
aldım
geril
kayıp
buradan
##nin
##emli
akadem
Adam
istiyoruz
##oo
##okul
##isiniz
##kabı
üniversite
Başka
##pt
Bölg
##ordin
##ows
kuzey
Yen
tedbir
##’ün
akl
##ata
Van
kampanya
depr
75
Hey
almaktadır
##arbak
Uygulama
##lılar
##vekil
hayatı
buz
sanayi
##mekten
##ino
Ec
edilmiştir
Odası
Yunanistan
##tanın
##cağına
Ders
çıkart
44
Ulusal
65
##dukları
olmayacak
##sına
elektronik
##sızlık
elb
ufak
gelişim
işlemleri
##gr
##ümr
karan
##ılmasını
harit
##ıb
müşteriler
çalışması
mens
sabit
sahib
Grup
Cev
kapan
takımı
Otel
ederken
Be
tanıt
Mühendis
edi
kullanılır
##uyucu
niyet
##ko
Hukuk
özen
##anız
bölgesinde
kullanmak
##luluğ
##etiyle
##ırlar
Yapılan
Ligi
##kil
kavuş
##usal
Çalışma
evlen
dip
oranında
bahç
##les
piyasa
şef
##liyoruz
unsur
Kut
Mey
Ceza
İşlet
Mem
##ülmesi
Cuma
zorunlu
çalıştır
##ESİ
gözlem
dakikada
takdirde
birşey
##arbakır
üyeleri
yerli
depo
sağlam
##amik
##gü
final
##altına
sam
Ef
çeki
azından
##kel
desteği
kred
açılış
değildi
Kanunun
değeri
Kons
##rop
ilişki
bulmak
sevin
görsel
grubu
görme
##mut
to
Etik
Yıldız
köpek
yaşadığı
fık
##illi
alabilirsiniz
bulunur
yoktu
konser
yapımı
##arya
böylece
seçen
Ha
ışı
söyler
##ple
##alesef
Is
açılan
##anacak
İçin
görür
##üldü
ihale
ert
##manlık
tıp
ilçe
maçı
##meyin
##ğını
39
##UM
eşi
Fiyat
“H
Pr
haft
Demok
fiyatı
##anti
Grubu
yaptıkları
Sınav
Yayınları
##afer
üretic
İsv
izlen
ürünü
istif
olduklarını
yolunda
olmayı
Teş
birleş
onunla
süs
nüfus
Tarım
koc
bugüne
öncelikle
üstüne
Yeşil
Str
##ker
Arkadaş
yürür
Avust
hab
Kiş
işbirliği
teşvik
##iki
görüşmeler
posta
##müştür
Kaymak
##biliriz
Koç
göl
##ever
##acağım
tarihleri
kadının
görevi
Şey
şunları
sağlıyor
42
yolcu
##rama
##ınızın
İtalya
##our
toz
benzeri
Merhaba
açıdan
##eceğine
##ori
##tıkları
mıs
konuşan
##tansiy
##tığımız
Boz
çıkarı
##ülebilir
Ödül
büyüm
##diye
pil
##tum
Mek
##eceğimiz
edebilirsiniz
söylemek
organizasyon
##demir
Turizm
anlatan
bilimsel
##ena
##itir
Tun
yeme
##isa
Kart
##ug
##duğum
##RK
birleştir
Çelik
turizm
Değiş
köt
##yu
Fır
belirtildi
numar
Mısır
gazetec
##ektörü
bilgilendir
Enerj
##ğin
##melidir
incelem
çö
Bilgi
Pa
renkli
gelişmeler
##errah
##unma
uygulaması
küt
York
evet
Toplantı
Diyarbakır
##12
no
bilinç
##parator
##antep
popüler
biçim
##gah
##uta
##bon
Bahç
##yasal
Saat
##ohn
değişim
işçi
##lý
kültürel
##işehir
Belediy
vs
iade
gök
##mede
##ris
muhteşem
sonuçları
##ysa
Dolayısıyla
##seri
TO
kıyafet
yönünde
misafir
noktada
##eral
iyice
bakımından
sıv
sevg
2001
##okulu
ayrıl
imkanı
##dev
yanına
dalga
yumuş
restor
seyir
edilecek
kısım
Festiv
##hone
faktör
dans
##mos
##mesinde
şık
tit
Esk
##indows
etki
gündeme
kaynağı
##cılığı
##lerimizin
##ity
##ese
53
Hazır
##ima
kaza
##ezerv
Balık
sevgil
ağrı
Zaten
projesi
Rab
makam
Yurt
Sınıf
##ayacak
##lüğe
Tabii
olduğum
##kal
geçer
##liliği
##leyman
Kılıç
##cağınız
karşıya
yetkili
göğ
##aca
Po
denet
geçtiğimiz
tor
##log
yılından
lezzet
gördüm
##eyse
Günü
##rag
nefes
insanlara
##amaya
yoluyla
Far
gerekç
tablo
##DA
##ilyon
Önce
##rav
##stik
Asya
Banka
Filistin
47
avukat
cumhur
##ema
kalmış
incelen
uçuş
başlayacak
yaptım
##olog
##sör
“E
taleb
##umartesi
Paşa
pişir
##kur
fonksiyon
##dığından
düzelt
Öyle
##aseb
kahraman
Co
durumlarda
Malat
##lendirme
hücr
400
Onlar
beyan
##bank
##ruf
##AC
##rol
TBMM
Yal
Kral
##uyoruz
bı
temsilc
sistemleri
gür
güney
yerden
yaşıyor
Siv
petrol
##liy
Nak
kamera
önde
##madığı
aşa
yaşat
arkadaşlar
##maması
donan
potansiy
Don
olmadı
fel
kendimi
Cumhurbaşkan
babası
##IK
görünt
Öl
usul
yumurta
acaba
bilgiye
kup
gösterir
işleri
elinde
##wit
eleman
dönemi
verilir
Ordu
Mi
birbirinden
##İŞ
refer
arkadaşı
öğrencilerin
##melik
düşen
benimle
##EC
##masın
##abilmek
##kent
##ükle
Ramazan
okun
taraftar
##tılar
##asındaki
194
acil
John
dini
Pan
dekor
kulüp
rej
önümüzdeki
##türk
Kurt
beklent
rakip
üstünde
kullanan
Tamam
##nan
olsay
Tarihi
geldiğini
##dışı
olacağı
gerektiği
kalem
##EF
çağr
istiyorsanız
benden
##kon
##akkale
geçici
ortamda
Arab
Şen
hoc
kanser
##yol
adeta
aktiv
##amıyor
kalb
kullandı
amaçlı
43
gördük
vermeye
hayatta
yarım
kimlik
Süleyman
ır
kartı
edebiyat
sevk
##paşa
yayınlanan
konuk
Doktor
Rad
halkın
şeyleri
Görün
Mark
aykırı
##var
##ray
Gaziantep
TR
##illa
##ilmesini
yaklaşım
46
sorunları
##rens
altyap
AR
Anayasa
“D
ölçüde
Gerek
malzeme
ilave
hakları
##iyo
kum
birbirine
##ıldığını
bildirdi
uyarı
Polis
“İ
insanı
##ilmez
##eceksiniz
çekti
##enkul
##masyon
adr
Çık
##ahh
##EY
dağıt
bağır
##ilerle
##ümrük
Dik
##layabil
taban
##iyorsun
kaçın
gereği
çocuğun
yeten
kullanma
Ona
gözaltına
maddesi
kimsenin
Karadeniz
olmalıdır
Doğan
oldum
##roid
yenilik
“M
##amin
ib
cezası
anlaşma
zek
41
kadınların
kalacak
devletin
tad
değin
darbe
##uşturucu
çocuğu
Pak
moda
indirim
193
savunma
Muhammed
anti
##andar
##inda
##elle
##23
fazlası
##lerdi
##ıldığında
duruma
mor
yapısı
aşağıda
mac
##laşık
esk
150
##’u
anlamı
takv
İd
195
görünüm
tutan
Fark
Çek
yüzey
##kır
modeli
##TC
sıkı
maddi
muhtem
##sar
işlev
Kupası
boyu
Kurumu
vad
##atematik
##dınız
##liliğ
yerlerde
##EB
hit
mali
enflasyon
ndan
Paz
##larımı
orman
Mobil
kolayca
Sanırım
Boğ
şirketi
Sitesi
“Y
komş
olamaz
aralarında
gösterdi
olmaktadır
Yatırım
kapasit
Gençlik
Olay
coğraf
şeye
##ding
Akdeniz
##insel
##lakalı
kimi
pr
##lerindeki
ulaşabilirsiniz
herkese
Mad
zamanlar
Enstit
getirmek
Tip
##abor
Con
##memesi
katı
göm
lir
yiyecek
yitir
mür
stat
usta
şehr
est
##ilebil
##fendim
iP
Gaz
besin
Karar
mühendis
54
komisyon
servisi
Jo
##ograf
##leket
##pe
##bey
ülkeler
hatırlat
Sı
##onun
Konu
kuma
verilmesi
Eğit
##emizin
blog
küresel
##ica
bilmiyor
Gön
##üye
yapabilirsiniz
##okol
Cih
Sch
müzak
Savaşı
yaşay
dua
Baz
elbette
maaş
yüküm
Bölümü
etmiştir
Kamp
ihtimal
öncesinde
##ılacağı
cinayet
##dy
belediy
çey
Kaf
##ETÖ
ofis
##ich
##irim
yaşamak
Turk
genelinde
Rob
Afrika
nden
##usuz
ekibi
Abdullah
##gat
başlangıç
ekipleri
kamer
kazanan
bez
Adı
Siyas
yakından
##isyen
mevzu
ani
sürece
Öğretim
yaptığını
##ülük
temizlik
belirlenen
sizler
bilet
bölümünde
bulama
rüz
konak
yedi
muhab
Biraz
##cıların
kaş
##oft
güçlendir
çor
Pen
Dünyanın
KO
##veren
##ash
Üzer
Yazı
##acaktır
aley
çıkmış
sel
korku
hatırla
sevgi
genelde
üretimi
husus
yürüyüş
Boy
Tom
##otel
Ege
alınacak
##ilerde
##PS
##tılan
sebebiyle
meydan
Danış
##larken
bilen
adalet
günümüz
istedim
Şahin
yedek
##ilmesine
Dep
##day
##’yı
ep
Windows
ağz
sanıyor
op
kaybol
49
tiyatro
##ood
may
edildiği
##duğunuz
sorgu
Ede
maçında
Euro
kafa
##laştırma
adlandır
Facebook
anahtar
##ary
Komisyonu
##mıyorum
bütç
yolda
##likler
Mat
##sızın
gurur
biridir
##teyiz
istediğim
gib
vir
Rapor
Telefon
##SO
##şi
olağan
oyunları
##ral
##mis
alet
alınarak
Ses
fiziksel
##leki
##leyerek
ob
isterseniz
Bilgisayar
Port
başlaya
##lerken
vermektedir
ölü
Selç
ayakkabı
Cadde
AT
Size
Fet
konularda
Doç
Yab
##astik
##odrum
Mahkemesi
Paris
##lenir
mutfak
kazandı
Sizin
Lond
haklı
günün
çocukları
hanım
sürü
Mersin
Reh
siteleri
civarında
Akadem
Mu
Şube
ideal
eh
İsmail
FETÖ
Pas
halkı
Sok
aracılığıyla
##ebiliriz
##ilerinden
kurumsal
##mm
##leyecek
lideri
Organ
Sekret
##siyet
bis
süredir
##lıktan
Çevre
##elendir
##osk
halen
##zan
mutluluk
##denin
buldu
##EV
dür
evlilik
vererek
Roman
Öte
Düzen
far
##araj
##AV
Dar
İlet
##ull
yangın
özür
karşın
yazık
uğra
yenilen
bazıları
52
yarışma
saniye
çağrı
##ilip
Tim
##mesinden
yör
##lanabilir
misiniz
##yaj
##LU
sinema
##car
Görev
kilit
Yav
##rada
gecik
bask
Fotoğraf
##ansiyon
Lisesi
bünyesinde
koltuk
telefonu
Bence
Kaç
Yağ
İnşa
##şallah
çan
kalıyor
##ürken
Ex
##ılmaktadır
##ketbol
Pet
Enerji
mimar
##zat
sektöründe
bahsed
antren
halka
lok
##melerin
##düstr
##gür
devrim
Çanakkale
ker
##OĞ
Ner
tanıtım
Elektrik
günler
##atistik
kaçak
##abiliyor
anal
adamın
sunan
kalite
##emeyen
##eyecek
Di
oraya
verg
##iller
Vakfı
kurs
yapıldığı
inc
##iyel
istihdam
temas
##TÜ
##tez
kağıt
##bek
yükselt
Art
ni
çalışmak
Meslek
dayalı
manz
##aborat
parmak
##oğu
olayı
##menizi
edilebilir
Sayfa
Toplum
maçta
Oysa
süper
##ona
nefret
işgal
##imle
sayede
terörist
derg
hazırla
büyüme
kurban
düzeyde
Doğru
##gini
dilek
##şiv
##usunun
bet
Kav
##los
sigara
rekabet
numaralı
##ây
beyin
##ısal
Kulübü
dijital
mensup
##lerimize
Bölge
##dunuz
##melerini
klasik
sözleri
tuş
Temiz
Bo
deprem
pah
döviz
##ğe
Tor
##ebilmek
##suzluk
##lemesi
Hakan
hâlâ
nas
##tıcı
başlama
amac
yerler
korumak
##likte
##isiz
##tığım
##des
yağmur
58
dük
tanesi
##ülk
şunu
##dığın
##satı
sos
yakış
maden
##ilya
Kaynak
Ta
bildirildi
Net
esnasında
alabilir
##şamba
hayran
gidecek
demokratik
kana
yapıp
geleneksel
Takım
verici
ülkemizde
Aile
tasarruf
Kuvvet
zamanında
seviye
Malatya
düşünce
##elli
Müzik
rezerv
Şim
yetenek
paylaşım
çök
anı
evden
Hollanda
halı
##tiğinde
56
mini
derecede
kullandığı
##lıca
##andarma
üyelik
ört
##tuğu
Yür
##kor
bitk
Sem
gayet
hoca
Etiketler
Mez
milletvekil
sız
##urdu
geleceğ
günden
##biy
başlıklı
Eskişehir
Bi
##ıyorlar
itiraz
Kent
Bunların
ira
Nec
maruz
sonuçlar
karma
kısı
birine
Maç
Hakkında
pratik
##tikten
başı
MAD
biy
“G
Fu
yetersiz
##soy
istemiyorum
İşleri
adayı
attı
Adalet
##barı
anlattı
##ette
##alefet
barındır
hasar
Stan
istediğini
Aşağı
##dış
sporcu
Vali
##jen
##diy
kelime
##tılı
##fik
başlamış
kimyasal
##uluğ
##vat
##ülüyor
##MA
Roma
dolarlık
rö
Araç
Hik
zirv
varlık
eğlenceli
gerekse
gözük
uyku
türü
##ıyordu
toplumun
##tup
gelişmiş
##vel
sorunlar
Tabi
##ump
inci
##asi
##pat
sürücü
##diğimi
##ýþ
YTL
##lerimi
görebil
Baba
köp
harekete
tehlikeli
##prü
di
dinle
##çu
##İD
tepk
diplo
##11
##danı
görmüş
bakalım
dikkatli
doy
uyumlu
olunca
##priz
Ücret
##ang
64
Programı
farkı
alması
##usuf
güne
##ibe
##mediğini
duruyor
sessiz
tap
çalışmalarını
düşüş
##ann
Hizmetleri
metin
##ometre
Müşter
##fat
onur
Da
IM
istanbul
tok
##asız
kazanç
57
tedavisi
denk
çatışma
tali
öncelik
##üce
Kuş
bekleniyor
##witter
##red
##talyan
Bulgar
##omo
zeytin
##lamayı
##yiz
soruşturma
yönetmen
yılının
olmaması
Saç
2019
verdim
sözü
Kısa
Destek
Para
Orman
##irli
masa
inanç
##elerek
sö
Sel
eğil
zorluk
noktası
günümüzde
##ji
##itler
Hayvan
sonsuz
kral
diyet
##iplin
emekli
gelmesi
Mo
Rek
ulaşım
haberi
yapmayı
gelince
Vatan
erk
gerçekleşen
artan
Küt
kumaş
##şe
edilmektedir
##tor
kâ
metal
Yönetimi
Londra
kenar
mektup
##şembe
##lete
kulüb
##kınma
ettiler
festiv
##bala
##emem
Üyesi
Çift
Temel
Dig
tazmin
sıvı
olmaktan
US
verim
ran
hariç
anay
olama
yönel
yıllardır
milletvekili
mm
kıv
dönüşüm
evren
##und
##orno
Yapı
Kocaeli
Me
sermaye
##örü
gayret
sitemiz
##ildiğini
Sivas
##unuzu
İspanya
##landığını
alanları
yapın
mezar
51
bulabilirsiniz
##lıyorum
yöntemi
kalıcı
kısıt
ayda
Tok
250
bileş
##ami
İletişim
isterim
kolaylaştır
muhaf
yılları
olurdu
yapması
##ülür
özgürlük
düğün
yolculuk
Saray
##üman
##leye
çekici
pis
va
alanlar
lük
kariyer
suretiyle
Resmi
##tifak
sunul
sıfır
##Lİ
##fil
tasarımı
##tayız
cenaz
güvenliği
belgesi
Eğitimi
##ert
Yukarı
örgütü
hali
##larınızın
##maktır
darb
Uzman
##IZ
##amın
selam
tutul
sahne
planı
##ülent
##lesi
##şap
sınırlı
firması
miktarda
verimli
Sabah
meclis
##dava
mevcuttur
yaptığımız
Bet
Kur’
Konseyi
Fi
altını
arkadaşım
##ciğer
He
sergil
kaps
Çak
musunuz
sırt
##LE
metrek
Sun
##tası
Projesi
keyifli
kahve
uyuşturucu
İt
Federasyonu
##cunun
Kes
Duy
çizg
sertif
##içi
sözleşme
seven
192
tipi
istis
seviyorum
kusur
Cumartesi
Örg
sunulan
Proje
alama
Kredi
hastalığı
isteme
etmez
memleket
düzenleme
yapılıyor
##otik
yu
çalışmaya
Emek
##ağını
##luyor
##CI
##malıyız
olduğunda
İST
İnşaat
Güç
MADDE
zinc
Meclisi
Com
müs
Müdürlüğ
Karak
kahvaltı
##indistan
anlatıyor
Kayseri
Yusuf
Anne
Öncelikle
Gıda
geb
bomba
bulur
muay
##led
kullanı
Emin
mavi
Apple
bireysel
taraftan
##iciler
##larınıza
##utma
##lanmaktadır
alışkan
geldiğinde
mir
meyve
çelik
##cüsü
alınır
Gez
çalışır
##abilen
Bununla
##ekom
##leyin
Ortak
Pla
Zor
yönde
##yim
düzenlediği
Ala
özgü
Aşk
mail
##OT
uygulanan
arzu
günah
kararlı
kullanılması
##cıları
Orhan
üs
ülkelerin
##leştirme
Bülent
gördü
cesaret
içinden
kırık
Erzurum
Eb
anında
İtalyan
Yazar
##ph
Hemen
##rip
verilecek
teor
##rist
esnaf
##ife
iyileştir
ekonomi
##lant
evinde
##imini
ekmek
yeterince
göstermek
bulunmak
konuyu
topr
yıla
vade
191
nih
bulunması
ağr
##ida
mağdur
Bus
önemi
Fon
erişim
olduğumu
Kira
##lâm
Barış
gözden
düşünür
küç
##irin
Bazen
Dağ
val
nesil
seninle
üstlen
##ill
Toplam
okur
##liyorum
##ste
##diğinden
beklenen
Gerçekten
Ail
##ükleer
sendik
Kos
Çay
mantık
##mes
odası
araz
Mor
tarihinden
Silah
##ülmüş
öldü
Hız
##balık
nakliyat
Ku
alg
cas
biliyoruz
Şer
##idi
##amuk
galibiyet
##EO
##sü
Yalnız
güz
derken
evine
##kun
Birleşik
parlak
63
59
zemin
Fen
##ach
turist
##desi
##mara
öğrenmek
evi
çıkıp
##tiğim
kişiyi
dernek
Ho
##itik
çabuk
##eleriyle
ailen
laf
sağlığı
Özgür
netic
Uğ
Android
nün
değerlendirme
reform
süreçte
ederiz
Piyas
Edebiyat
arkasında
faydalı
Tanı
eb
ış
Pazartesi
##landırma
rehber
##diven
Mik
“Bu
Birinci
##we
Sta
Hareket
Sistemi
vah
gittik
kursu
##nav
##giz
Başv
600
hakkındaki
icin
kamyon
Kir
mümkündür
toplantısında
bulunduğunu
port
miyim
Teknoloji
olmasa
harf
ağız
garant
Herkes
##AF
##lup
Kaya
cami
karşılaştır
Bölgesi
##lamaları
çı
işyer
link
alanlarda
kıymet
##ruk
##iti
etmeyi
sürpriz
##üyü
çekiyor
masraf
bağımlı
çekim
niye
alkol
saatlerinde
Lisans
görevl
tüketim
##mini
##tıktan
##mamak
prim
##IŞ
olmanın
numarası
##ınan
99
Tut
iğ
##LAN
##elal
AD
oluşturan
aşı
başarısız
Birçok
##otos
##yalet
Tiyatro
##ider
üstü
sanay
damar
radyo
##kim
##eyerek
geride
##anada
kaydı
##abilm
aklı
komut
##azer
##OK
##ulmaz
oyunun
kilometre
Yemek
Azer
Bodrum
Amerikalı
ulaştır
Yabancı
##ıbbi
felsef
hediy
yur
Oto
Nev
##tein
geçiyor
##IS
Hiçbir
##âlâ
##işan
yel
edilerek
##umun
rahmet
açtı
Satış
Ajans
##akk
##lamada
bulan
adresi
emniyet
katıldığı
Terör
çik
rüya
Escort
Çarşamba
##ress
konfor
##slan
Haberleri
ÖZ
çekil
olmaları
kemik
emir
sürecinde
##usundaki
##ington
kalmak
baktığ
Üstelik
##YA
inceleme
##esto
##arik
Karab
güzellik
forma
Bos
öğle
yaratıcı
log
havuz
##ecik
##80
ücreti
##ende
##muştu
Bebek
kör
bilgisi
##eğine
Japonya
##ukur
adıyla
Hükümet
Hanım
##ani
##das
sürüyor
Tesis
##fendi
##mali
##zersiz
Savunma
##fed
öp
bizimle
istikrar
##lığından
fet
turn
sekiz
İlç
##halat
##kilat
##laşması
Tasarım
belge
Şark
akr
arasından
Fik
Konuş
bakın
arasına
##alimanı
95
Servisi
tay
mahkeme
erkekler
##enizi
Vol
sisteminin
şehrin
##’tan
Yoksa
mikro
panel
arayan
İmam
hayatın
Mimar
dışına
KAR
muhalefet
##riyet
KK
Trabzonspor
##çeği
##tma
sevgili
##lob
gelişme
liste
diyorum
##ersen
Emre
anlar
##sis
teşekkürler
söylemiş
Ata
fırsatı
hiss
Lim
##alog
##paz
##uşu
traf
beslenme
defter
bölün
Kore
66
şahıs
##larý
Metin
85
Tav
ulaşmak
##yabil
uygulamaları
##culuk
sakat
##gn
potansiyel
olmuştu
##yaspor
Kızıl
##lerdeki
düşündüğ
yoğ
##mıştım
Yönetmeli
Tür
Ant
egemen
başladım
olaylar
##raz
Ph
Lütfen
##uğla
##ılabilecek
##abileceği
##LARI
##deceğ
yapmanız
##alel
göğüs
##ebilirim
##madım
##lex
##OM
ortada
tamir
inti
Yarış
dili
edeceğiz
yargılan
Bize
üretilen
##ünce
vadeli
zehir
##lemiş
annesi
Sol
Gazete
Geçtiğimiz
gelerek
##isindeki
kamuoy
##latma
hekim
##amızda
meyv
1999
İstanbul’da
Not
bakar
öğrencileri
olabilecek
##AĞ
Denizli
Caddesi
sizleri
Enstitüsü
ürünlerin
nı
##ebiliyor
##hir
Hes
demokrasi
memnuniyet
##LERİ
Festivali
Doğal
gördüğü
sesi
sayısının
satışa
mesle
ettikleri
Sine
maalesef
67
##lası
görevlendir
Seçim
kaybetti
İr
mağaza
Bahçeli
dosy
Belg
kimin
iPhone
kov
sebeple
##bahar
kalıp
##nu
ısrar
##lukla
Oper
Min
rekor
hayırlı
kutu
Taraf
ailesi
##medik
süreli
döndü
Psik
pencer
Hindistan
Op
Etkin
öm
##ydi
deri
dayanıklı
##ladım
##ektif
##oper
Ziy
##lanmak
Sakarya
##sesuar
##’li
merkezinde
##ýl
olmuyor
Sonr
donanım
##gül
##ASI
##ılmak
ust
Pap
canlandır
dör
versiyon
yüzlerce
mün
imkân
sün
işletme
olduğunun
alana
ikram
hakkını
##tek
İb
##ikal
işini
fabrika
bonus
idari
protokol
oynay
geriye
##iliğini
hükm
Yaklaşık
Örgüt
getirdiği
##gıt
olabilirsiniz
Lev
kullanılabilir
yapıyoruz
haberleri
görüyoruz
oranda
##ATO
icra
elbis
vası
Komutan
kaydeden
koca
Maliye
Vide
pahalı
kendinizi
##ğına
garanti
##lon
##stagram
edici
aralık
yukarıda
çıkması
Ardından
batı
Mesela
##rü
durumun
kuy
hatt
inf
##ky
makyaj
Kahraman
akış
Bayramı
göstermektedir
##eydi
nereden
##ât
Th
##öv
##lî
##sav
ajans
garip
Gelen
##ee
kons
kanat
##meliyiz
silin
ırk
yumuşak
pu
bekleyen
İşlem
dedik
##sün
##gari
##ight
yolunu
##leyip
miktarı
yürürlüğe
keyf
org
Ort
##anda
TC
ikna
gelmiştir
çizgi
yemeği
yazılmış
uzay
##lasman
##isti
aldık
Salı
lit
denir
##tral
##ayol
Trump
##ates
YÖ
psikolojik
Temsil
yayımlanan
##büs
hadis
katkıda
##ube
açıkça
tarafı
som
bilmek
kaşı
##io
prens
Mel
makinesi
##ive
açan
öğrenildi
meden
haftada
kurmak
redde
##bı
yılına
Perşembe
seçimi
almıştır
ayakta
1000
##’nden
seyret
##balaj
itibarı
firmamız
ikisi
##iski
zamandır
olsaydı
##medim
görünce
iba
nö
##raç
##eker
ikin
sabır
sever
Kontrol
şeyden
##po
##çın
Basın
##arap
fabrik
konferans
trilyon
62
bizlere
kabil
Mağ
sinyal
efsan
cennet
##duktan
##ks
şair
go
##cın
IMF
bunlara
aptal
BİR
Hafta
kendisinin
Sorum
##ÜR
beslen
##alıyor
mekaniz
İmparator
oluşur
dolara
##stil
değişikliği
eme
##urk
senar
aksine
Teb
Şanlı
şirketin
yerleri
açma
##ezilya
sağlanması
##amaş
yaprak
hip
raporu
toplantısı
AY
Allah’ın
delik
efendim
Ağır
Finans
nereye
NATO
çıktığı
projeler
başladığı
Söyle
atık
payı
Motor
##ılığı
##sının
şük
görevini
muk
arıyor
tutum
İnsanlar
gerekirse
ödey
birliği
Farklı
çak
düşünü
cerrah
bacak
bölgeye
iman
gelmektedir
##bakanı
banyo
##alığı
##ılmaya
Uğur
Ker
nez
TÜRK
devir
eşlik
##cük
##kenti
özet
Ruh
Değişik
Günümüzde
##ERS
Person
Tipi
izlemek
seçenekleri
Marmara
ente
malzemeleri
takımın
##halde
##aklı
Nih
pilot
kargo
anlayışı
yapılmaktadır
ömür
##ebi
rahatlıkla
kiralık
72
Soy
Na
rengi
br
##cilerin
koordin
##bistan
82
düzgün
saati
doğan
##tre
şekli
##MS
piyasaya
alırken
fuar
aşkın
yuvar
dışındaki
sunum
çıkma
##out
##espor
mülk
##sever
Ortadoğu
Digit
Japon
##don
sakın
Işık
topu
Naz
endek
##ecekler
Sigorta
##mekle
##LÜ
Kaymakam
##lanıp
duyarlı
koleksiyon
##ersiniz
Nit
##imizle
##US
##30
##liğiyle
##rimenkul
Diz
##çılık
sunduğu
Yaşam
duygusal
##beri
Kör
ahlak
görüşme
Kayı
Servis
##atın
kaldığı
yağı
##ijinal
Öğrenci
Soru
Göl
bitki
Gala
Köyü
İslâm
randev
saçma
Uk
büyüy
aran
bütçe
##unç
ST
evin
kaybı
skor
siyasal
##âm
uyarınca
İŞ
aylarında
sorular
peyn
Çiçek
konular
##bilirim
dönemin
##tıklarını
komşu
elinden
##malısınız
mobilya
vurguladı
##üphan
imzala
Okulu
satışı
sektörü
etmem
devreye
Orada
şehri
Hotel
çalışmalarına
Türkiye’ye
mit
uzan
Ünlü
plana
bozul
filmin
gösterdiği
Aziz
algı
Fir
Char
enfeksiyon
##yeni
çel
kapsamlı
##emiyor
tarafında
açıklaması
Brezilya
anlaya
kısmını
##çisi
ves
bugünkü
Boğaz
##emiyorum
yapılabil
işlemler
Pay
doku
sembol
Rabb
istasyon
##oli
kriter
mağaz
seri
başk
sizlerle
##melisiniz
##ınıyor
örneği
##rad
Model
Koc
toh
##isar
61
yorgun
kullanabilirsiniz
daire
##abiliriz
eşliğinde
denilen
Yakın
pa
Afgan
Kong
Üs
karşımıza
varmış
sınırları
görevli
İsa
bıçak
##dırma
KKTC
sığın
bahar
##itif
paz
fatura
geldik
##ým
hakem
##İH
cümle
120
dediği
Daire
##aydı
altındaki
Col
vermesi
Kardeş
Ermeni
bizzat
çekir
Sad
organize
idare
68
bulma
arşiv
tev
kaybeden
##ens
##artman
ülkeye
eğlence
olmakla
##ağının
genişlet
##dağı
##mus
Dönem
Malz
oradan
silahlı
festival
gerçekleşti
öf
aşık
##lit
##umuzun
hepsini
##dıkça
insana
birinc
kullanıyor
çıl
##avuş
Demek
Alev
inanılmaz
ilişkileri
çapında
satı
eline
istemez
dola
rüzgar
##itan
Ekonomi
##tip
istifa
akademik
ER
karanlık
##linik
mevsim
karşılıklı
Dek
Mücad
yapacağı
okula
Gece
Gol
geçirmek
Soğ
me
günleri
kayıtlı
Ulu
ortasında
##ANB
##labilir
Sokak
##mesin
teker
hemş
##düncü
verin
Dairesi
nem
##manıza
##ARA
yurtdış
örneğin
Hadi
kazanmak
saatleri
##umuzu
yağış
Kullanıcı
Mc
bıraktı
69
karşılığında
şartları
hitap
Şehit
##UT
kıyas
mısın
herkesi
bilgilere
alanına
Hazine
senden
Diş
por
Bakım
##ağına
kavga
##eciler
manevi
sürük
yah
açıldı
muy
firmalar
caz
##öly
vizyon
##laç
##rosoft
##acık
şartı
katılma
Tük
hükümetin
Çöz
doğur
sir
##tığında
##mu
Sim
##ürriyet
aldığını
atar
gemi
##alif
##emaat
bulabil
##iner
slog
##leniyor
ilçesi
görülür
doğu
etken
sunmaktadır
Teknoloj
öğrencilere
isteyenler
bizden
Takımı
##dıköy
Giz
##daroğlu
##lusu
örgütün
##işe
sön
soruları
tarzı
aracın
##’la
##ft
ülkelerde
dürüst
Kış
veriler
arkadaşları
Mir
sitesinde
çocuklara
taşıyor
vurgulayan
anlamlı
biliyorsun
sahil
ifadelerini
müzaker
##amıyorum
denem
eyalet
tey
Telekom
zamana
oluşum
##baycan
##esince
montaj
Ziyaret
##ülecek
Wash
yoluna
##ýnda
Tez
Git
yazdığı
##çısı
anket
yerlere
##birliği
##lamalar
kontrolü
##navut
Bon
çöp
Kale
Bla
çekmek
sanal
fan
dondur
Geri
##yalı
sizden
Dağı
##ğinde
##layı
Balkan
##ağında
kitle
##ýný
Manisa
##orit
For
Nik
Gal
oynanan
çıkardı
kadını
hayatına
kutsal
##lanmaya
set
##emize
doğa
geldim
##SY
istemiyor
bileti
sözler
Dok
##ung
##esir
uygulamaya
gelişen
lı
##ümde
Pi
sunmak
##adır
kalitesi
“O
seksi
Ela
##tük
ceph
##rul
merhaba
Türkmen
76
olmasının
Şanlıur
baştan
fikr
##ANBUL
Twitter
yakıt
nam
Post
##eryal
göze
parayı
finansal
##tüm
##ayolu
tebrik
sürdü
büyüt
##vi
endüstr
utan
##inizden
gününde
77
iletişime
GÖ
gezeg
egzersiz
sanık
programları
oğlum
laborat
gereksin
##uhaf
co
HDP
bölümde
müh
Kayıt
gidiş
##malarını
##EZ
verilmiş
geleceği
##ulacak
taki
##luğunu
gerçeği
##lüğünü
Birkaç
uydu
dilerim
makine
yıldan
öv
sıradan
pazarlama
müsa
İlgili
maddesinin
amaçla
hükümeti
ulaştı
lek
girmek
81
hızı
deplasman
##yn
ekipman
düşündüm
Suudi
Air
##larsa
##burg
başından
##lülük
kendileri
##pınar
##gul
vatandaşlar
Siyah
makale
Şampiyonası
gerekçesiyle
blok
Washington
gücünü
##aa
##uvalet
##abilmesi
##türü
getiriyor
köken
Gümüş
uzaklaş
fıkr
mesela
sizinle
asit
##aracak
Ayak
Keş
istenen
firmaları
##duğunda
hizmetler
protesto
yardımı
paralel
ilah
grafik
##kas
Giriş
Uç
konuşmak
Jandarma
##amış
keşfet
kg
istatistik
kullanılarak
##unuza
tanık
zararlı
getirir
##api
Geor
##ımdan
AA
İndir
Görüş
alıcı
lanet
Öy
horm
peygamber
fot
disiplin
ayrıntılı
SP
şansı
##GS
kaşığı
rob
tarihine
Ven
girer
##p3
sad
Ermen
Kosova
Dal
yerleşim
konuya
##olata
##piyat
##use
Ukray
çekin
ürünün
karbon
çalıştı
Kur’an
İlçesi
Azerbaycan
##oks
EN
halkının
##and
tamamlan
olmazsa
##luğa
##tap
düzenlenecek
bunlardan
Üniversite
##hiş
Ateş
##ersek
gram
##portaj
niteliğ
##madığını
##tel
Holding
olanı
kişilere
bisiklet
Bro
yoksul
çeş
Avustur
babam
imalat
gelmez
##çılar
yazan
Star
çalıştığı
suçlu
Cep
İçişleri
alakalı
tal
engelli
olağanüstü
##ehenn
başkenti
##şet
araçları
##ılav
tutmak
eminim
ibadet
irti
buyur
Güncel
eur
Buraya
ec
etrafında
dönemlerde
mada
Doğum
teşkil
ihtiyacım
yansıt
Bulgaristan
##danın
##lobal
ismini
##uyla
Dost
kurtu
şimdiden
Başvuru
Tep
bulut
işten
karşısına
ahşap
bağlam
##masız
##ERİ
sistemin
Sc
##’ten
dünyayı
oynayan
bası
çıkmak
##olar
direk
ederler
tescil
##eyt
taze
nükleer
##gim
anlamak
değişen
bölgesi
##fez
Zeytin
konulu
iklim
nesn
Seb
Renk
desteğ
yazıyor
atıyor
bedava
gergin
##abileceğiniz
sermay
oğl
Müzesi
Arnavut
hukuki
800
Gazetesi
stres
##Sİ
klima
##ediler
##dığının
Def
Ekonomik
sahte
lüks
##mec
gerç
Başbakanı
ihlal
gündüz
imar
etkileri
buton
Üret
##th
Kazan
kodu
noktasında
tavır
plastik
saatte
yürütülen
sh
##unuzun
##lıkların
gözet
zamanla
çıkarmak
izni
canım
##emektedir
konusundaki
ikili
okudu
doktora
##larımızda
İSTANBUL
##ilirken
##EP
Engel
inanıyorum
Saf
verilmiştir
hâl
vefat
kendime
##TT
ölçek
buldum
yolları
yarısı
konuları
Müst
tavsiy
aktivit
##stra
##öyl
vic
ölen
boru
olgun
kopya
daima
bizler
tef
##caya
taksit
Örnek
##16
##lamanın
Dis
Qu
Kud
tl
değerleri
dert
Umar
kalabalık
##yaya
yaşamını
koku
yetkilileri
sığ
geliştirme
##ox
##tiğine
giyim
kaynakları
Sırbistan
##name
##lerinize
##lıyoruz
İnan
yaptığım
lise
olacağız
##’ü
Sözleş
bulacak
Gi
Je
##lub
##ld
tör
girecek
Boş
istey
Trans
##luğun
Geçmiş
muhtemelen
göreve
lay
denen
yazarı
##aları
##Ã¼
##vin
AV
kısmında
katk
##lamen
işletim
gazete
##ish
##ts
önemlisi
##önü
##elaket
şok
Cumhurbaşkanlığı
Form
estetik
##dığımı
##evit
evrak
çalışıyoruz
##wn
Yavuz
73
sistemine
yapılmıştır
##avüz
taahh
mim
Kılıçdaroğlu
etmiyor
##SP
tamamı
74
##tığınız
yöntemleri
sıkış
##adı
antik
##yeri
çatı
kıyı
ithalat
şirketleri
Rüya
yemin
Konut
##ilmelidir
##üğün
hepimiz
olayları
geçmek
porno
##cin
Tanr
İle
Jack
bununla
komik
yaralandı
karşılığı
tv
izleyen
tıkan
delil
kimseye
yıkama
masaj
Aslan
##ux
verdik
mecbur
semin
Çetin
##andum
oyunlar
atmos
##bel
##omotiv
Edir
OL
##tiğiniz
bedeli
küf
obj
matematik
##ny
hikây
gönüllü
##çası
İsviç
çalışıyorum
##rah
Kartal
ihraç
Hac
yüzü
atış
Microsoft
Forum
aşamasında
İL
Kadınlar
kullanılmaktadır
##dil
yapılabilir
##larımızla
tarifi
PR
yal
olabileceğini
sayg
tamamladı
olurken
kek
Oğuz
yakalan
ilanı
sof
##cell
haksız
coş
Günde
girip
tüketic
etkiley
##eğinin
vel
Selçuk
dostum
Şanlıurfa
yıllarında
Önemli
danışman
##19
alınmış
heyet
kardeşi
başlamıştır
merkezine
##çilerin
toplantıda
##melerine
cumhurbaş
boşan
##BB
tazminat
##teri
sistemini
katil
##’lik
oluşturmak
Fab
verdiğini
Gec
buluştur
hid
akım
annem
İsveç
çıkarak
##akar
talebi
Geliş
kullanıcılar
##ila
Hacı
topla
##unt
ötürü
Havalimanı
Halil
Bakanlar
##şun
kızın
harcama
##’ndan
##imet
istiyorsun
tedarik
##anların
kaya
söyledim
##ps
düzel
Aday
##üsünü
Hangi
##zığ
78
talimat
##tih
##şak
Hoca
ayrım
##UK
şifr
uydur
Kanada
##asal
Yorum
ga
Mis
##sansör
ilgilendir
##çilik
bölgenin
dükkan
##ılacağını
krizi
ediyorlar
sözlerine
altyapı
##ure
##tiş
sırala
koyun
devre
##iğe
kurulmuş
##cuk
Det
faaliyetleri
kasab
##meme
1998
çağdaş
##İV
##liğinden
Sinan
devleti
değişiklikler
dinamik
##utin
##poz
##rid
con
açıklandı
Bür
EK
teknolojik
kaybed
##tina
ocak
Mit
##uncu
raf
Du
Ziraat
##tikleri
hesabı
Ob
sonradan
haftalık
##amaşır
almayı
Cil
Geliştir
şeref
Sektör
itibarıyla
görülmektedir
Kırmızı
##own
Kalkınma
##ames
##NA
işleme
anlatır
forum
Kem
Yaşar
Online
##unacak
suyun
ekr
kül
Valisi
oynama
aksesuar
olmasın
Normal
hek
ilgisi
pir
teklifi
Günlük
edecektir
Devam
##landırıcı
alımı
protein
KD
##gut
##öylelikle
Kadıköy
verebilir
oyuncak
##İYE
ast
Dergisi
evlat
yazdı
materyal
katılımcı
##eğim
birinde
uygulamalar
yetişkin
Elbette
##simum
Del
cevab
##anları
leh
Arabistan
##dular
giderken
Başar
yaralı
Des
katli
intik
aleyh
girmiş
belirgin
eklem
Şiir
1990
devamlı
##abilirler
##ÜK
savaşı
##ilerinde
ilerle
Samsung
##ifi
bekliyoruz
##yaz
onlardan
döner
Ras
riski
ex
Sil
köprü
##lüğüne
Taşı
##onsor
neyse
attığı
burası
Abdül
gitmiş
##ğının
##resyon
Ra
zorlu
pozitif
dinlen
Milliyet
##ralı
Kuvvetleri
yapacağız
dizisi
ilçesine
BAŞ
##’nün
##larımızdan
görülüyor
Geb
Balıkesir
Devleti
##eyebilirsiniz
İN
yapıyorum
##40
##dere
hayatında
tanıyor
##kusuz
##TA
Cevap
tablet
noktaya
fe
##ester
herş
##uyordu
hizmete
arıza
Konferans
milliyet
Acil
kategorisinde
##mamı
zafer
Ecevit
##üldüğü
naz
bayrak
mahkum
Makin
ülkemizin
stratejik
ANK
Muğla
dü
Bes
sahipliği
##lini
##umda
beklem
Mühendisliği
bulaş
konuyla
Suç
Yönetmelik
kapak
##xy
ağırlık
çeyrek
omuz
haş
işken
teki
sektörünün
medyum
olayın
##asebe
üyeler
##uyan
itiraf
oyuncusu
zul
duran
Amaç
Akın
car
bardak
##ýk
uyu
kirala
getirilen
##lamıyor
##imine
dağıtım
direkt
Tedav
Bush
koruyucu
Canlı
mahal
##ilecektir
##ometr
oynadığı
##çileri
Eve
Elektronik
##laşım
Kanal
sahipleri
##unus
hastaneye
##amayan
ch
sus
kritik
Salonu
Koruma
herhalde
##’ni
asgari
tavuk
mevzuat
alanlarında
dünyadaki
tatmin
Emir
Play
Medya
koyu
Dalı
etiket
isyan
onlarla
uyandır
ısın
##ald
dekorasyon
karmaşık
isimler
Sn
Ukrayna
##omuz
olanların
##ısındaki
Onların
ittifak
projenin
##yurt
##vil
virüs
##lanırken
##miyoruz
korkunç
Olim
##barat
Cas
felaket
yardımıyla
##ılışı
üzeri
sunar
korunması
sürüm
zincir
reddet
bitti
##sh
Ölüm
eşsiz
adamları
tarafta
##viş
Çocuklar
##ındık
listesi
Maked
##bal
Kilis
hakaret
##şek
dersi
cezalandır
##uyorlar
Çocu
##ebilen
##aralı
direktör
İnce
dudak
müsab
nci
##EFA
ülkeleri
sunucu
##ff
hattı
çözümü
Belç
ihtiyacımız
haberler
##masi
190
Bolu
mp3
##emizi
##iyeli
Bakanlık
yetki
İstik
Ask
Cey
##ekili
beklet
##iledi
yararlı
Kadir
satır
seçilen
koşulları
semt
Nor
Avustral
nik
şarj
Albay
inşallah
ard
##IT
##60
sürüc
topluluk
bastır
geçerek
karn
düzenlendi
sağlamaktadır
##mece
##ülasyon
doğrusu
Hırvat
##TV
tüy
fen
duyduğu
Edirne
intihar
##ilmek
kula
müthiş
##emedi
yapıldığını
emr
çevresinde
kader
İçer
Direktörü
çır
Vergi
orijinal
##ita
başa
Dört
##labil
sef
700
##bas
Şiş
eseri
yapmaktadır
biber
##çü
Yerel
tuhaf
fı
Akıl
Ödülü
mesleki
sayılır
Tal
Div
yakında
##alet
röportaj
gibidir
BİL
Alış
hazırlanmış
tıpkı
##ümüze
Başsav
Öztürk
verilmektedir
faydalan
tara
gelmek
sömür
elini
yüklen
##ith
Afganistan
izleme
##nda
geliştirmek
ibaret
neticesinde
Ümit
##dilik
mutf
müte
anlamında
gösterilen
##SM
seviyede
##17
gecesi
ayrılan
ag
79
##eceksin
bomb
yarattığı
akla
başlık
burun
koz
Selim
görünen
Sohbet
mide
Eg
Sizi
##ole
Herhangi
kardeşim
ortamı
Personel
##15
##olik
tac
UEFA
##HA
##umuza
bakımı
ndeki
yürüm
esnek
hazırlan
performansı
oluşturduğu
organiz
Yüksel
##raj
şahit
##dön
Kel
otop
Bizi
Onur
##oni
ÜN
Cin
kullanmaya
##layabilirsiniz
##uki
iktid
vatandaşların
aklım
şimdiye
##eğinde
##lır
98
belirlendi
##İB
hareketi
maddeler
isimleri
Mavi
verip
Sov
Eğ
Türkler
##hael
Ele
gözler
##ebileceği
çam
yoldan
üzgün
içeriği
Kork
çanta
krem
bayanlar
İspanyol
olmasından
göv
yazma
Mali
teşkilat
##alisyon
bizde
##gur
sıcaklık
Gu
rezervasyon
88
87
bırakıp
##âl
gümüş
##kili
kaynaklanan
yir
tutuklu
gerçekleştirildi
arayış
boyun
##giliz
tecavüz
önlemek
bilinc
MÜ
Dernek
hedefi
Sup
aldığım
zorundadır
##brek
kaydedildi
##ıplak
açmak
UN
gelebilir
##yaman
kedi
Çeşit
riv
temsilcisi
Birlik
Yay
edenler
topar
##tiniz
Num
kılı
##rit
boşluk
97
gönderilen
denize
girdiği
gittim
peşinde
karışık
Bol
milyonlarca
Koordin
yükseldi
öğrencisi
1980
projeleri
müst
##ücel
Avusturya
##indan
öğrenme
Kerim
Kaş
antrenman
mesajı
ihmal
fikri
##ılırken
##lata
borc
konaklama
##yolu
içerir
tırman
Şük
Uygu
Sağlığı
harc
heykel
geçirdi
robot
uzaklaştır
layık
Umarım
üncü
irade
seçeneği
somut
##iminde
##sından
Vatandaş
bırakın
gazeteci
çalışırken
etmey
devamı
vazgeçilmez
Sevgili
deli
Digiturk
##tic
hayli
##peryal
perde
vermeden
ailenin
lezzetli
Alex
##lilerin
herşey
cemaat
tabak
##mates
iyilik
stok
hastane
Evren
samimi
sergilen
Salih
Mücadele
farklılık
Kızı
ceb
##layınız
sisteme
resimleri
##ted
##dola
planda
##amda
Hakları
##olon
ambalaj
Bunlardan
Sekreteri
oynan
Sez
maz
1997
resmen
ölçüm
Hedef
lastik
ziyade
tıbbi
diliyorum
##ılmıştı
Gelir
Elazığ
uzmanı
getirildi
referans
İşletme
##has
teknolojisi
gümrük
Kesin
##cağımız
Bilimleri
cezaev
Büyükelç
tarihten
tutun
ettiğimiz
paylaşmak
##gelen
cadde
İsviçre
Ur
edildiğini
##amak
muc
Kli
hissettir
##likten
##duklarını
duyurdu
işlen
uygulanması
sağladı
şiddetli
##yat
Sık
gençler
oluşturul
Vakıf
Rektör
okumak
medeniyet
##oid
##abileceğini
randevu
anım
Efendi
tarihte
bekleme
yavru
Örgütü
bilgilerin
Gay
milletin
çalışmaların
##Kİ
“Türk
##fe
döndür
yapış
##iver
profil
##rağı
evvel
olas
araçlar
##emeyecek
##top
oluşturulan
kolaylıkla
ispat
etkiler
bok
Mahmut
Kapı
içerisine
84
##uluğu
##layabilir
##azz
öykü
##ümin
##inizle
verileri
kurumlar
şof
ettiğiniz
şebek
gülüm
söylediği
aldığımız
dördüncü
hızlandır
Efend
aldıkları
bag
minik
Ref
##kâr
hamur
ağırlıklı
Tuz
##anılan
kazı
abon
katılmak
varlığı
zira
##tah
sorunların
##ılacaktır
senaryo
özgün
##18
Sün
##allı
sürdürüyor
##istler
şüpheli
##IF
Sınır
Selam
açtığı
etmeniz
Haberler
yükle
Süt
##berg
sizlerin
kızlar
yerinden
##larımın
AS
zorla
tüp
gazetesi
fit
Yarın
varsay
Pir
##larıdır
dokuz
odaklı
hikaye
başlığı
##eceğimi
bizleri
ortamında
Video
Üz
maçın
Belir
oyuna
söylem
zem
Milletler
ul
kararını
##ÜL
##tüğü
Hatay
özellikler
lak
##umuş
##ence
lev
Onları
##eysel
diğeri
##sinden
dediler
Koz
yalı
Bank
83
deneme
tarihinin
Paul
bozukluk
##dığınızda
miras
Sinema
##oter
##gazi
kullanır
Arslan
##dinde
ulus
döş
Adnan
fatur
liraya
geçecek
##ýz
Reklam
çil
zamanlı
##nın
yaşandı
##BA
Dol
##iğin
tohum
kesi
meşhur
##so
Karaman
##ûl
Berlin
##çuk
Kuruluş
desen
tanrı
##ason
ilişkisi
görmeye
Ki
Sendik
yapılarak
##lanmasına
boğaz
isteği
Ür
##ğine
##luğunda
sorunsuz
üyelerinin
unutmayın
eman
geçiren
Nitekim
taahhüt
##izde
değilse
bakmak
Tas
Cengiz
düşünen
Şeker
##lans
##ilmeye
##leyse
Bayrak
Michael
üreten
Basketbol
Çavuş
bürok
reç
değişken
##operatif
##elikop
##steri
dönen
yürek
pap
TH
budur
disk
vitamin
buradaki
ilerleyen
Sanki
Hoc
Gümrük
merdiven
tarafa
durumuna
atılan
Gre
bölgesel
şehirde
##tüğ
oluşturur
programına
Afyon
ayrıldı
##GK
86
KUR
pom
açılması
##lanmasını
Şef
##tına
karın
##EŞ
Çat
##bür
Gran
##eceğin
Cor
okulu
Sorun
Toprak
Dünyada
Mosk
maddenin
uzaktan
##iba
ülkeyi
artar
##PG
gereğ
##ði
Akşam
veda
Muhar
##abilmektedir
kalması
Şubesi
92
çiğ
##tam
Mün
etkileş
Müsteş
şarap
vicdan
##LIK
müslüm
##my
beraberinde
kurdu
şö
##âhil
toplanan
sayısını
vize
koya
##kurmay
süresince
iyisi
atmosfer
Üskü
Televizyon
Yılı
##lenin
mağlup
96
tuvalet
epey
Modern
uygulanır
istenilen
hamil
1995
th
artışı
yaptığınız
##ame
hormon
olmasıdır
ANKARA
##kes
kuruluşları
cevabı
Alp
geleceğini
tamamla
çif
##ME
##Ğİ
istemiş
so
tarihlerinde
sözlerini
feder
Sıcak
##ulma
düşer
##ney
vitam
##ect
Frank
bölgedeki
Sezon
öte
yükselen
kel
##low
santral
sag
ge
ilham
##vert
suya
##ellef
birbirlerine
İlaç
açar
89
insanlık
olacağım
TRT
##stri
kurulması
yaratan
##elif
imkansız
##irkin
kuvvetli
##aport
sesli
##cam
##tas
Arda
çikolata
##alarda
##lanacaktır
Dub
David
konse
dikkati
##FF
##İC
yapama
uğur
organik
bölümünü
müş
Kudüs
harek
dünyasında
mektu
##ildiğinde
titiz
işletmeler
##tınız
davası
sevdiğim
çoğunlukla
maksimum
dışarıda
Dikkat
rica
ankara
##otosiklet
##DK
markası
elbise
Derviş
medyada
personeli
ihtiyacınız
veriyorum
Avustralya
kaynaklı
##tive
##del
##igür
Sırp
Mahk
amir
##iliğin
##enize
##anızı
##stanbul
iştir
Ülkemizde
firmaların
yaptıklarını
açıklamalarda
Komut
etmişti
##eyebilir
hayatının
kalmadı
kararlar
##irse
görebilirsiniz
##mana
KDV
programında
testi
Kurban
gereksiz
oyuncular
çözümler
##ski
Nakliyat
dönük
tadını
rady
vuruş
yanlı
kadına
Radyo
toplamda
##jinal
gereklidir
##ılımı
aynen
Esas
##ılmasının
işit
bakıldığında
##adam
kombin
##ARI
kurucu
ettiğim
##ideki
Göster
sağlama
değişimi
etmekte
Pe
göçmen
dahilinde
edemez
180
##ony
bilgilerini
hazırladığı
sponsor
##unum
Oyuncu
satılık
##meliyim
görüyorum
##ortası
##etli
##OB
temsilcileri
pi
gelecekte
Meydanı
gideceğ
yerin
##rasi
meşru
##larınızda
büyüsü
Yahudi
sınıfı
parçaları
oranları
tahsil
##fesör
##rib
mahall
Öğrenciler
Bilimler
şirketler
Rah
ikamet
tarihe
bekliyorum
##olos
ulaşan
gerçekleştirilecek
tehlike
izlem
##iyetini
baraj
geleni
İlan
kuman
##ünür
alev
IŞ
##ebilmesi
İÇ
##ech
ayet
koydu
yönetici
Birleşmiş
İdaresi
gev
##ileriyle
Kişisel
##LİK
irtibat
vakti
Alk
görüldü
sektörde
beton
kilis
Pamuk
yapay
##taç
##eld
çalışacak
nakliye
Üretim
sorumluluğ
##lament
Körfez
yang
referandum
konuşmada
yükleme
Dayan
onlarca
Camii
##ilmesinin
dönemine
Memur
yazısı
##eveyn
Borsa
Demirel
saptan
çığ
sözcük
meşgul
dönüm
konularında
ekledi
plaj
kaygı
##ilde
##tra
getirerek
ihtimali
Marka
##düğünde
oturan
kısaca
şirketlerin
sektörün
restoran
Kuran
kapsamda
Moskova
sizde
kuruluşu
madal
Kitabı
Kategor
##apı
onarım
olmanız
degil
satan
sta
Ajansı
mekân
Çam
meselesi
mol
çılgın
oksi
94
Mardin
belgeleri
sünnet
##load
belgeler
çür
gerektiren
sindir
yolculuğ
bakıyor
İmar
Trafik
DA
##anıp
sürdüren
Biy
içki
sis
hırsız
1996
yaşamış
Oku
aklıma
##renin
durumlar
mezunu
##ÅŸ
ithal
Tatlı
##cesi
Uzak
Şarkı
pant
Türkiye’deki
ettiklerini
##wa
etmeden
##deme
rakib
TEK
lam
evli
‘’
##iminin
##atörü
Asker
seviş
uzanan
##’le
oynamak
seviyor
yılların
haric
Turkcell
olabileceği
doğalgaz
Genelkurmay
aşamada
Kitab
##SA
Fonu
cihazı
kendimizi
patron
Bağım
şan
##acaat
dönüp
kızar
içme
veriyoruz
başarıyla
George
duydum
sebze
ked
yardımcısı
yolun
Gr
##mik
ihtiyaçlarını
Belçika
##umuzda
vekil
atmak
başarılar
ruhsat
##diğimde
gezi
arttı
kitapları
önemini
93
bran
havaalan
önder
vermez
üzün
Mutfak
##lenerek
okuyucu
##feri
Hırist
basınç
Resim
kişiden
izleyic
##ID
##yaş
##arda
içecek
süz
Gönül
##eter
Kampan
metr
Hızlı
Birbir
##leyic
dünyasının
tetik
ilanları
Bakır
##laj
Gelecek
CD
staj
anlata
##tezi
olmam
Prot
erkeklerin
düşünül
işveren
adli
neş
Gelin
trend
geçtiği
##eleme
##ğinin
kendinize
##ora
dünyası
anlatım
örnekleri
hemde
katılacak
IP
kablo
erdi
yla
##eneral
araştırmalar
birlikt
##ğday
best
##ikler
şanslı
yeryüz
bo
##ecilik
gor
Bunları
başardı
Unut
gelmiyor
deneyimi
format
yapmam
deneyimli
borsa
nöbet
Angel
casino
Burası
sağladığı
düzeyinde
##grama
artıyor
##esun
çoktan
köylü
kitaplar
kitabın
masum
değiliz
limon
muhafaza
artması
by
sunuyoruz
My
edeceğini
Vad
Otobüs
İnsanların
öyk
politikası
hur
hastanın
Kongresi
##etle
EL
##diğinizi
istedikleri
kurma
##ımızdan
başladık
olursunuz
900
sürecek
nihayet
gerçekleştirdi
dâhil
otob
“P
hang
##ışlı
##faf
katlı
varlığını
kentinde
ağrısı
kaba
görmez
yazın
boyutu
liman
##adet
##ðý
gelişmeleri
##kilatı
imam
Zar
alman
kurulum
##uel
Gençler
üste
Uzmanı
Rak
Fuarı
Kişi
esir
nu
##UZ
he
izliyor
tesisat
sıklıkla
başrol
babasının
Ten
yaşamaya
ailesinin
##cere
Sürekli
Sy
List
bölgelerde
Ağrı
Olimpiyat
filmde
market
##SS
merkezli
Fizik
##gıtay
İlişkiler
dediğimiz
nüfusu
##odu
Rize
##sk
doz
şartlar
adında
Davut
cüz
Erdoğan’ın
okuyan
öğrencinin
Max
sürdürülebilir
Cemal
##alik
ikiye
##olojisi
maddesinde
nolu
fiyatlar
##laşmış
##ânı
danışmanlık
olanları
hareketli
hastalıkları
##ümüzü
##için
Başak
##ubu
melek
toplama
kuralları
##eliğine
geçtik
albümü
durumunu
Çukur
##menize
Zeyn
işle
Sayılı
Ayr
Baykal
##’’
vergisi
Çiz
okulda
##metik
gönderdi
başkanlık
71
Müşteri
açığa
Macar
çalışmalarının
##osunu
muam
Polonya
Şekil
Kürd
Tüket
Bilin
cehenn
görünür
rahatsızlık
You
Tev
kurşun
Kalite
##orld
kurduğu
Lat
dır
Hazret
eskiden
üm
Uygun
zeytinya
Edin
basketbol
chat
mevki
1994
##sus
ekstra
İM
çamaşır
içten
##ojistik
ili
YAP
elem
##obi
##emedim
kuz
artı
ihtiyaçları
miyiz
Anal
##mektir
işine
pasta
##suna
Ola
yaşar
##ational
##göz
##ml
malzemeler
getirilmesi
Dam
yazmak
sahada
##ilme
saatlik
euro
Özdemir
sevdiği
Esen
fena
yapabilecek
etkileyen
##mışlar
grubun
##lie
tüketici
##ganda
şeytan
kaplama
##ebileceğini
sorgulama
Çoğu
##ower
Ücretsiz
cüml
##lanmaz
tank
##rekans
Büt
düzenle
oturma
##ily
misyon
haklarını
depolama
davr
Üçüncü
##üğü
Parkı
turnuv
verdikleri
geçirdiği
Neyse
Platform
anlatı
fazlasını
hic
##nn
haberine
Önceki
Komutanlığı
“N
böcek
##lana
evr
##miştim
olursak
konuşuyor
yapmıştır
##larm
bot
Zafer
##cinin
anlamıyla
nadir
##iriz
boşal
anlatmak
##dukça
derhal
Nef
Serdar
Katılım
yüklü
##ope
firmanın
Oyunları
##leşen
çırp
gözü
##ılmalıdır
oturup
##GB
yüzüne
kültürü
nakit
hadi
Fırat
İhale
toptan
je
Fuar
##vey
çadır
hastanede
tanıma
ph
Times
muayene
Turan
nitelendir
oluşuyor
cinsiyet
##lüğünde
kaldım
##ekiz
peki
Polit
gittiği
kullanıcıların
m2
adamlar
##ava
tavan
##ulları
edilemez
Eren
ndaki
akraba
gündür
kadarıyla
“Ç
içe
Gökhan
koalisyon
verdiğimiz
Diyanet
hükümleri
stil
yayınlandı
galiba
##udu
Yargıtay
maddeleri
İhracat
sınırsız
Aksi
söyleyerek
rız
yaptırım
Hürriyet
##stan
etkisini
kanalı
katılımıyla
şap
iftar
Yunus
Eh
nitelikli
sayfada
söylüyorum
çekilen
##ümüzün
duyuru
tanınan
gelişimi
sürecinin
KON
##föy
adımlar
##abey
‘B
istediklerini
temizliği
günümüze
insanlarla
hücre
Stratej
varken
değiştirmek
İlişkin
##by
AP
##izmin
olgu
kurgu
##ÜZ
güçleri
Genellikle
Sayı
Makedonya
öğrenim
##mad
geçmişte
yatırımcı
Romanya
gayrimenkul
etnik
##faiye
Olan
edebilecek
##general
https
kaçınılmaz
##rd
##LA
Tatil
##kender
alındığı
##alep
Yüce
açıklamaya
problemi
fazlasıyla
Mol
lu
Ayşe
edelim
geçmesi
Avukat
Musa
dövüş
şiirleri
##zen
Matematik
sertifik
ingiliz
oynat
salonu
dönüyor
##ty
lan
tıklayın
##izmi
giriyor
##over
ayının
ABD’nin
almadan
belirtiliyor
özelliklerini
beyn
ödülü
konunun
seyr
Terc
##eğiyle
tüken
sök
hamile
yöneticileri
Gem
ışın
etmesini
Tasarımı
başlamak
islam
##parta
##akal
Yeter
vas
##wood
teminat
Kongre
Endek
kib
##âyet
çekerek
edeceğim
dersin
Şeyh
##kanın
soya
Turgut
sade
vermey
kızım
##ree
muhtemel
kavg
##epyeni
##dýr
alacağı
##ilmişti
tahsis
sep
rah
piyasada
burs
yapılacaktır
geliştirilen
helikop
aler
yağlı
göstergesi
düşünmek
rolü
rez
Büy
Hala
##matı
razı
##BC
endişe
##LAM
yükseliş
arazi
Adıyaman
##ünüzü
Nes
gun
##cileri
kopar
maliyeti
oyunda
öncelikli
cis
fes
Emlak
Flor
##ünel
muhabbet
##ebir
bardağı
mült
##memektedir
vitamini
vakıf
yarg
Ürünleri
hocam
serisi
değilsin
fakir
peynir
bulgu
patlama
hayv
çant
##laşan
çoğunluğu
##gatif
Bahar
deg
başlayarak
Batman
altından
##pi
çıkmaya
Onlara
##ayn
##ano
uzaklıkta
##aydın
İzle
gördüğüm
##düstri
##çının
Düşün
##32
başlıca
bırakmak
adil
işsiz
War
oluşturuyor
bilgiyi
gerçekleştirdiği
Sekreter
full
kullanılma
Mahkeme
##ysanız
##âb
laik
PC
dostu
başlandı
##ongul
Cerrah
kaleme
Nerede
##avan
Dönüş
##diğinizde
ülkeden
##zel
Tuğ
Biri
##ışın
seminer
edilecektir
örgü
##akende
yönlü
getirecek
tir
kullanılabil
Kimse
Silahlı
##gunu
trav
Mutlu
hazırlanıyor
Mesaj
başını
bağlantısı
olacağ
partinin
haberdar
mask
Red
Erdem
elden
##imum
yüzyılda
öldürül
##losuz
##onguldak
bulmuş
vücud
##idin
etmeleri
kurtarmak
sıç
güzer
oranla
türkçe
filmleri
İlhan
ediyordu
sec
çirkin
##ahya
##aspor
Klas
kullanıldığı
etkisiyle
aktör
Moda
“k
##takım
ötesinde
##unlar
duyulan
yürü
##ınacak
sordu
müracaat
gençlerin
gebelik
Çözüm
ünit
bekley
##iyenin
sürdürdü
köşe
planlanan
Sistemleri
tarayı
Koş
##üsünde
yapılmasını
çeşitleri
##mazlar
bilme
yapacağım
ekonomisi
##deler
Yalçın
eli
##edin
sınavı
pik
yüzünü
##ınızdan
##’nı
##ülebil
##cal
rivayet
Cihaz
Üye
##IC
Test
cumhuriyet
##ıklığı
Giresun
seçmen
partisi
sarf
kilometr
umarım
Komutanı
yorumlar
Kurtul
Instagram
korkut
##ularak
Şampiyonlar
yazılan
domates
Portekiz
##diğinin
birimi
Çocuğ
reak
çalıştım
asansör
##graf
çeliş
Sayf
Pop
Erol
fırın
sevilen
emperyal
yapmadan
parsel
##ebilmektedir
faz
ifadesi
Durum
patates
ileride
havada
donat
Evde
sözlü
etsin
Çel
odaları
fotoğrafları
tüf
Wil
kapsayan
kazanır
yapalım
kendisinden
Dos
mükellef
bulunmayan
Dak
##abi
Komitesi
köyü
motoru
yolla
##izin
hissediyorum
##diğince
mücadelesi
Tablo
Geniş
Çor
böbrek
Faruk
Metal
##yr
kâr
Kahv
##civert
seçimleri
kanaat
Babam
yapılandır
durak
Pakistan
GÜN
çıkarma
Malzem
sitede
olduğumuzu
entegre
verirken
##IA
##25
çatış
alem
işg
tespiti
adaylar
yapıştır
aydır
kullanılacak
çıkarılan
baþ
sayfasında
ekle
yaşamı
##tisiz
idam
##hisar
Tık
görevlisi
liralık
kılav
hâkim
##üminyum
alkış
hain
yönetmelik
formu
çalışmalara
##lerimizde
İpek
Tanıtım
filan
Salon
imparator
Bağdat
“C
##sizin
alay
##irdağ
olayların
unvan
##ürüz
füz
dog
Güneydoğu
##EH
olabiliyor
dersleri
girerek
Wal
redded
Askeri
aldığınız
##âz
düşünmüyor
##MAN
##ülüğ
OR
iktis
şur
sezonu
midir
içerisindeki
sevdik
##çin
IŞİD
kütüphan
diyorlar
Vi
##24
Ahmed
##dişah
yönetiminin
##dükten
Bl
boyutlu
menfa
artarak
##saspor
##amızı
trib
Görüntü
töreni
karara
sayın
akşamı
##work
Bizler
seviyesine
belirlenmesi
Hıristiyan
seviyesi
arkadaşlık
hangisi
YIL
İçinde
Altı
ardı
kenara
vermiştir
düşünüyoruz
izmir
1992
muhalif
keyfini
Kum
ümit
##olan
##zir
##eron
belirsiz
acel
##14
Hesap
General
##veni
Üzerine
sandık
fakült
##yaka
hizmetlerini
kucak
düşmüş
Ebu
boşalt
Güler
Bildir
çalışanları
muhabir
tarihsel
artırmak
buluyor
James
##mayacaktır
yaşadı
Demokrat
parası
bebeğin
mısınız
##acası
düşüyor
başlatılan
Yalova
##asın
duş
Sezer
##bası
kavuştur
kanseri
Nas
##buki
burda
güler
Willi
küp
müdürü
düşünceler
##pet
##coin
yükümlülük
tutk
işley
puanı
bilmem
komutan
##üzün
Yarı
İncel
edilmelidir
arayıp
##END
yapıya
aracılığı
Serbest
yır
gereğince
##dumuz
sürecini
##lığımız
Profesyonel
fav
öfk
değerler
Burak
satıcı
Galaxy
Nil
To
Bis
##press
##masıdır
We
borcu
tecrübeli
herif
etkinliği
örn
sezonunda
Fel
limit
hast
##ceğ
BD
Had
Levent
Buz
keskin
Petrol
##KB
kurucusu
sertifika
1993
yanıl
başlattı
##aylı
##oth
aittir
oluşmaktadır
Bosna
##fan
metrekare
satılan
##mî
##hid
##evler
zan
##lıklarını
##İSİ
bahçe
ölümü
##tuğunu
zamanın
konul
sesini
##dikçe
##lerimizden
gene
cerrahi
##aban
çim
dergi
öle
İhtiy
##iliğinden
Kıy
##atik
##lanmıştı
##maraş
yıldızı
bilmeyen
düzeni
Kağı
Kole
Hikay
##amızın
adresine
kalmaz
metro
bağlıdır
tecrübe
sağlayacaktır
opsiyon
yollar
özelleştir
mel
##yayı
çıplak
ürünlerini
ilaçlar
kalitesini
zik
Lef
savaşın
##abilim
müziği
yirmi
rüy
nis
Özer
Veli
açıp
yaşına
##yetik
##OĞLU
mıdır
kime
adama
yetmez
damla
up
beklemek
Kanununun
##ülerek
##ja
yönündeki
##itasyon
##enlerin
Sivil
seslendir
dk
##ografi
dayanan
gençlik
okuya
Madrid
vesile
müj
başbakan
Mevcut
söylediler
olacaksınız
öncü
tahta
##HK
Standart
##yın
gerekiyordu
Rüyada
mantar
miydi
ayın
Buradan
##üphe
##acağınız
duv
3D
Amas
frag
##icil
sigortalı
Antik
##lerince
adlandırılan
tasarı
Belgesi
olurlar
##falt
##tun
işlerini
Feth
yönünden
##limi
##70
##lanın
eğitime
##afe
##saray
##İTESİ
“b
cenaze
##lerse
yıldön
##ling
inanc
atarak
tüzel
BO
keşfed
AF
Robert
Bursaspor
Hani
kökenli
##tiz
elektrikli
Bende
kaldırılması
Kurumsal
##IY
madalya
karşılaşma
##abilirim
Kars
##tıkça
Annem
Ul
Bizans
muhtar
Maden
masal
##tesi
gelmişti
##jantin
##zaman
balkon
Dolar
Mesleki
sorusuna
##ladığını
mezh
Ast
insani
genetik
bilinçli
seviyesinde
oruç
Kulüp
Kalp
Borç
##oban
oturum
City
bankacılık
emanet
isminin
##liliğini
##cası
Est
tela
Mete
ÜNİV
Türkç
Site
sergi
sende
sex
değerini
Otomobil
kusursuz
rit
PD
gerçekleşecek
kelimeler
##iliğe
görevleri
beyler
AM
İktis
atöly
tahliye
kuran
Dah
laboratuvar
vermem
##aat
##ağından
##incan
poş
sırasıyla
##eşme
göstererek
yaratmak
etek
##utb
Medi
kadınlara
kampanyası
kullanılıyor
##amayacak
##araya
ero
##ceği
##usa
III
hij
İslami
birtakım
veriliyor
üzül
istediğimiz
sınırı
tabir
pantolon
yazmış
unutma
İp
geleceğe
haliyle
noktasına
atak
şidde
tasarlanmış
##liydi
ibar
sayılan
##oğlu’nun
Yolu
keç
mineral
çıktığını
ret
Zonguldak
Tekrar
tayin
##cik
fotoğrafı
şeklindeki
Arapça
karşılamak
mesele
fed
##ço
Bekir
gerçekleştirmek
ambu
emlak
alak
##luğunun
farkına
##oley
müd
Avrupalı
yaşta
Köpr
araçların
##ürt
TSK
kalkış
çekme
Yukarıda
ilim
##maktadırlar
ET
meme
açıklamasında
kurtulmak
taşıt
Hoş
baktığımızda
makina
kapısı
mantıklı
##imizdeki
Anlaş
ordusu
##lash
Bing
Belediyespor
##kab
benziyor
belgesel
GB
Ertuğ
ışığı
Özkan
vermiyor
İçeri
yepyeni
çıkaran
yetkililer
ÜNİVERS
haftasında
bakarak
Arjantin
Bugüne
Klima
Milyon
olmadığına
çet
baskın
bulup
çalışanların
turu
Eser
kuruş
İY
##osun
Vekili
arı
##che
##iter
şeylerin
Cilt
Kapalı
ertelen
dışarıdan
yapılacağı
Şüph
poli
Alb
savcı
us
bakter
##oviç
Kahramanmaraş
xx
kısmen
Tol
Pil
geçin
sanmıyorum
işareti
Tekirdağ
işlemlerini
değiştirme
##lükte
eti
emeklilik
Acı
##’dir
##kif
##iret
kokusu
##outube
yönelt
##amadı
Eng
gönderildi
vadede
çektir
programın
Engin
etkinlikleri
resimler
##iel
taşır
##ırnak
üretici
hassasiyet
Allah’a
sorunlarını
##hats
bağlantılı
noktaları
hev
ajan
##ediyesi
İskender
kararın
İnşallah
Kaymakamı
titr
başlamadan
hikayesi
kurtarma
negatif
tamamını
yuvarlak
verdiler
kurulmuştur
Arı
seans
kenti
Anti
sıkça
vücudun
bildiği
girmesi
deyip
##13
Muharrem
gelsin
küm
Bahçe
Selçuklu
hele
merkezleri
başvurusu
mimari
Politika
şimdilik
Oh
##’si
kef
##İST
yıllarca
dökü
##ladığımız
##avv
Ankara’da
kurumları
eksiksiz
etkileyici
çocuğa
SS
Bırak
##örek
niş
geçip
koyup
ebeveyn
mutlak
nazar
##veç
sitemizde
Lin
Konser
fas
sorumluluğu
idrar
takib
gösteri
gruplar
kalıntı
koymak
ihbar
isabet
Terim
Full
parma
Sarayı
kadrosu
Real
eks
kısmına
katliam
Resul
Önümüzdeki
##tığın
büyüyen
apartman
bela
hakkına
gökyüz
haricinde
grev
tutarı
hissede
Trak
topluma
arsa
aldır
ülkesi
geliştirilmesi
yelpaz
mesafe
“Bir
operasyonu
temizleme
anayasa
olduğun
seçin
cuma
##endi
yoksun
çıkmaz
miy
suçu
konuşmasında
tadı
Beb
Ste
Nat
pasaport
bam
kararları
##EÇ
etkisiz
görünüş
Çorum
birde
tabl
Taşıma
planlama
Kötü
başladığını
yorumları
boyn
His
vermeyi
##taydı
##ırda
işsizlik
Lüb
##dý
##way
Usta
borçlu
grupları
Kalit
kot
Alanya
param
gözleri
##oza
beraberlik
plakalı
Ulus
verilerine
Bart
bilgilendirme
##emeye
şarkıcı
##TR
Sonunda
dedek
başlı
bilinmeyen
belirtmek
kaleci
birileri
ihanet
Kırk
William
Asıl
başkent
##jik
oldular
imaj
denli
yıp
kandır
kocaman
girişi
dib
kuruldu
düzenleyen
doğumlu
azın
Ekip
##atlar
Nar
zır
Hab
anılan
buçuk
kentin
sözleşmesi
açıklamalar
yuk
haftanın
emeği
hafız
klinik
CN
##ota
İZ
İsmet
Hel
girişimi
kullanıma
kömür
belirlemek
ucu
zihn
##gir
filmler
sonuçlarını
istihbarat
toplantıya
rep
figür
oynuyor
Coş
Döv
##ELİ
##ubuk
##leşmiş
okudum
Ted
##YD
##oker
Çeşitli
detayları
##uydu
Hikmet
##üsüne
şoför
1991
##ıh
biş
Kazak
yapmaz
Boya
Bost
Yör
direniş
##IP
##cay
muz
dedektif
bakımdan
pır
buzdola
halini
Ofis
Duvar
toprağa
kendinden
ilke
kasa
##eceğinizi
iddialı
çıkmıştır
vurdu
diyalog
parçalar
Ertuğrul
siteler
çevrim
##paganda
ederse
Jon
nişan
kadınları
##tes
TS
Girişim
##emde
izn
Saldır
##alizasyon
havaya
##malıyım
sözcü
vol
Mars
hareketleri
##eceğimizi
canav
Lak
1960
moral
toplumu
tu
##ILI
bant
yaptılar
yazdır
hapse
##luğuna
Umut
##sika
arıyorum
ağı
##ydım
direnç
yle
vatandaşı
##ürler
gözle
çektiği
çalıştığını
manzara
Başbakanlık
enerjisi
YÖK
askerlik
Hy
görüldüğü
kuşak
olduktan
saray
yaşamın
sözde
Evden
depresyon
zamandan
##’s
helikopter
Bilişim
##PSS
bırakır
bazında
paketi
yaşadığımız
##resel
yil
huzurlu
doğdu
kullanın
Şam
cesur
uğrat
Anayas
harita
İstanbul’un
pres
deplasmanda
##ılırsa
pe
OS
tekstil
işkence
açıl
yüzyılın
bank
Dijital
MS
Zeki
edeceği
Fiyatları
sorularını
##linin
gördüğünüz
Soğuk
Siyasi
zarf
süp
yahut
##gren
coğrafya
türkiye
Fazla
Vic
onar
tersine
Ros
diyebiliriz
Black
zeki
Eskiden
sürüş
Araba
şuan
##ruklu
DNA
Oyunu
gönderdiği
İşçi
İstiklal
##ünist
tırnak
Luc
uyuş
Kurtuluş
yaşandığı
viz
##YON
kimliği
##ああ
çorba
Türklerin
Eyüp
Sermaye
##ücük
çiç
##zet
evrensel
sözünü
AC
Düğün
##xt
##MET
Denet
Hastalıkları
##amıza
şeffaf
##lunun
Planı
Devletleri
ayağa
öngörülen
uğruna
sanda
eksikliği
Buradaki
Hrist
Kütahya
dostluk
hepimizin
aralı
Acaba
istediğin
##çelik
Kafkas
Denk
Ülke
taşınmaz
şüphesiz
Böylelikle
“Ben
klip
##leks
şüphel
seçildi
ortağı
##sten
kişileri
bağlamda
hastaların
kesintisiz
Geliştirme
oranının
kurab
kararının
denildi
bildirim
düzenledi
Rıza
Üsküdar
##üsünün
Eşya
motosiklet
Sabancı
getirmiş
##TP
kazanma
Cer
ödün
Ağa
##eck
aldat
gelmeye
görüp
belirle
##ehri
macer
##tüel
##nes
Kök
110
Sanay
Cap
Denetim
gerilim
Başkanımız
##ont
sisteminde
herşeyi
Ayhan
ca
etmenin
edilmesini
buhar
yolsuzluk
##sedür
ülkelere
yapacağınız
menfaat
Tren
deyiş
##ds
Ünal
“F
tesad
Yaşlı
Yasa
kapsa
##tüd
sırf
kısmının
ÜNİVERSİTESİ
İnönü
##mosyon
kitl
vakt
hissi
##eğeni
gerektiğine
aşkı
##eceğinden
##27
##maların
Afrin
sorusu
##diki
##ART
savunan
##ebileceğiniz
kaldırıldı
Olağan
şehrinde
Sof
İşin
Lib
Kendini
zamanki
hayati
Henüz
tamamlayan
frekans
söndür
Uçak
yarısında
1970
iltih
Festival
abi
filtr
##que
Hepsi
sevinç
kötülük
kalmaya
başlayıp
memuru
dolap
##cy
odasında
yapacağını
otopark
buğday
kontr
##omb
andan
sebz
you
çerçevede
##dr
Erkekler
Tv
##ilmi
demişti
Halı
giyin
##mun
ekme
faaliyetlerini
prensip
inç
bağlan
Hele
##ayıp
Mesut
bilinmektedir
Sevgil
Zirv
jür
dilim
yapamaz
yakalandı
İster
yaşadıkları
müc
ilerlem
yazıda
kazanmış
lif
göt
biçimi
maça
arkadaşlarım
Sir
ölmüş
kavramı
dalg
Üm
masaya
biriyle
PTT
öğrendim
açıklanan
astr
Faaliyet
çözünür
nar
binanın
düşünün
değerlendirmeler
Wat
##iyordum
efend
İbn
düzenlemeler
şekeri
Mühendislik
yapıyorlar
##ella
engellemek
##akkak
etap
aydınlat
##ym
##ue
##yak
Nihat
sonuçta
eserleri
şüphe
##000
önündeki
kutlama
Lok
kep
bilinir
##KAN
ertesi
kendim
Erzincan
fiil
seçimlerde
Celal
serin
Amir
##dig
geçerlidir
öğretmenler
yükümlü
bağırsak
öldürmek
Ir
fl
destekleyen
tuta
konudaki
“Ö
Ondan
Yazılım
Mini
##memi
Evi
Yeniden
İddi
##66
verildiği
Herkesin
tüketimi
Polat
muayen
sih
BU
##II
hastalığın
menü
##ladık
düşünerek
##delik
##enleri
ED
“R
durumdan
yukarıdaki
paranın
“Ş
çalışmanın
EM
bulunacak
sürecine
fiş
Hırvatistan
Por
Vir
sitesinden
sendika
yuv
defalarca
sayısında
ayına
etmeyen
Küresel
##ahtarı
oluruz
kare
Fatma
namazı
Sınavı
kont
Raporu
kalkın
başlaması
##ilmesinde
##ifer
yaptıktan
Alışveriş
Akıllı
düşünmüş
kredisi
günkü
karakteri
aza
kamuoyu
sınava
Tap
listesinde
çalışanlar
##ÄŸ
olmaksızın
Yur
##geler
##lamıyorum
parlamen
tezgah
sahibinin
reng
ÖSY
Değerlendirme
İzmit
##idor
130
##90
atma
diyoruz
tutuyor
Zeynep
tehlikeye
şov
tansiyon
dönmek
bırakma
çekip
dersler
##melisin
yatan
Mobilya
##atılık
doları
##onlar
mıydı
##enizin
Toplantısı
##ursa
çeker
memnuniyeti
türleri
İstih
Kolay
##İLER
##ymış
şampiyonluk
arma
##22
Kenan
Yüksekokulu
van
bankalar
Stadı
##TE
benzet
yoğurt
İdari
##ozgat
Klasik
Lu
kırsal
Başk
##lının
saygın
cik
kapasitesi
hatırlatan
müzakere
Parça
Toplu
sürecin
gerçekçi
analizi
fındık
duyan
##ızda
Aşağıdaki
piyan
sağlanan
kole
başladılar
##alem
asfalt
Toto
Konak
daim
görüşü
konsept
##lidir
##ektro
KAY
Karan
yüce
##cher
Garanti
Temizlik
Benimle
yıkan
Noel
alınmıştır
meslektaş
Öyleyse
Aksaray
Gro
Bed
uygulanacak
##mazlık
##lenmiştir
ağac
amatör
logo
hayvanlar
Gelenek
Teh
özelliğini
sürer
Sonuçta
ru
kimseyi
##ilebilecek
Bulut
kurtarı
##emediği
##larıma
Turn
hd
Ez
Ül
katılıyor
çocuklarının
tesli
BÖ
istiyorsan
standar
istiyorlar
##leyebilir
müddet
##umcu
pet
##gören
kurumların
yenilikçi
Blu
##urun
Havaalan
konusunu
propaganda
ailesine
görülebilir
Yum
##siyle
##üksel
erkeğin
ilerleme
partner
##epe
##cia
Harek
##calı
davanın
Peter
askı
lazer
neye
tıklayarak
malı
Beden
niteliğinde
etmeyin
aşan
##sub
yazıyı
personelin
kongr
çıkardığı
boşa
##ALI
sahneye
sanı
Kans
uygar
çeyre
sahaya
Kürdistan
romantik
cihazlar
##afak
ekrana
Yık
##ınıp
##omi
merham
yöneticisi
heyecanlı
siteye
Pınar
kaldığını
##İLİ
fırça
Kop
lerin
savaşa
diğerleri
Meksika
özlem
Cami
##hoş
##iyorsa
olanağı
kazanacak
cari
Mahal
Göç
arkasından
gerçekleştiren
İmparatorluğu
olmamız
vasıt
ilgisini
Rich
olacağına
anlatmaya
Burs
Firmamız
önlemler
##fiye
şen
keşif
müşterilerine
döneme
Los
programlar
kumanda
##ited
Tokat
Kendisi
##iha
Nüf
yönden
belirtiyor
yollarını
##düler
Adem
benzin
mav
tabanlı
sahasında
mahkemeye
Otur
takıma
siv
Wh
##elerimiz
##cra
videosu
##Ä±n
ilişkili
##dını
miz
mütte
çarpıcı
Nuri
##ladılar
ilaçlama
yönetiminde
yut
##ahit
salata
Yücel
Kırık
bulduğu
oyuncuları
atom
söyleme
pişman
olduğunuzu
Düzce
oynadı
süreyle
Yarışması
bölgesine
DEĞ
toplumda
##daa
##ayolları
##oleybol
çıkmaktadır
saldırgan
##gon
Artvin
başarısı
Kastam
İlköğretim
Yasası
##inler
kapıyı
bini
Müsteşar
##şen
göreceksiniz
Lir
##cim
##ültü
Değerli
söyledik
tebliğ
ceviz
aradan
ifadesini
tencer
takdim
Uc
facebook
odasına
##biyotik
##bilmek
bulunu
şekillendir
SON
soruyu
##ford
Mük
güçlük
ihtiyacın
konforlu
binası
##eliğin
hazırlamak
##lamadan
kararlaştır
sağlanır
aşağıya
##elin
Fas
bro
kadem
iv
olanlara
kazandığı
Atak
yemekleri
##abilirsin
##ott
taşımak
varan
Türkiye’yi
Hekim
dışından
Bakın
##diğimizde
Jim
Lübnan
##fuk
solu
##masa
vaat
Olarak
sez
unutulmaz
lez
##val
hil
bine
hatalı
olu
gelmedi
akciğer
bulunmuş
Kimi
turk
##dirme
seçimlerinde
dinleme
Gülen
Hen
##larin
##YP
350
##tiğin
belirlenir
değerlendirilmesi
##ehr
zeka
##cilere
##ove
##etk
##je
##gara
programa
emri
sark
ihtiyacını
USB
editör
hel
Ulaştırma
kurut
##’lı
##týr
Yoğun
##ersem
##biye
ÖN
İste
oksijen
Arama
##mo
##34
play
yarıda
vereceğim
sonsuza
partiler
##aze
##llah
kurumu
modeller
üzüm
##lenmesine
Dekor
dizayn
aksi
mısır
kıskan
dayanarak
etkinlikler
atama
etmemiz
Rehberi
##ilmeli
hükümlerine
duygusu
##layınca
otorit
zanlı
çıkarken
işyeri
bulduk
sormak
arayarak
sevimli
barın
Özcan
giys
cem
##İP
çıkışı
renkler
##ýnýn
neyi
yaşıyoruz
karşıtı
Erken
ülkelerinde
kitapta
Hu
konsan
Çer
farket
mülkiyet
World
##utu
görüntüler
üyeliği
hesaba
PRO
formül
sü
karışım
bölümüne
##değer
ingilizce
Keşke
yazılar
bitkisel
Atina
##barek
gözlerini
İK
Bilm
Amasya
sensör
yaşadık
Yapım
##¿½
Kaptan
karaciğer
zen
ruhsal
vat
kullanışlı
Demokrasi
##edd
deh
##bit
nerde
çekiş
##aliman
görüşmek
vasıtasıyla
gelmesini
Pazarlama
##gâh
destekle
Adet
subay
##cül
Güvenliği
##malısın
ateşli
berek
macera
KPSS
sezonun
motiv
160
yaşından
internette
katr
140
gövde
##kileri
vereceği
Lo
Log
Hor
eserler
birbirini
seviyeye
##ion
gönl
adresinden
dikkatini
One
makul
belirtir
Gölü
Kullanım
CEO
geçtiğini
yetkisi
Bob
güreş
programda
##ned
Kurs
fren
Alınan
bron
söylemişti
çıkara
Anabilim
yöntemler
pul
köklü
##feder
Cennet
Il
elma
Faz
duymak
Esn
miting
THY
ziyareti
TEM
kurb
##lerimizle
bitkiler
##lerinizin
İrlanda
##tüdyo
başlamıştı
derler
##dini
##isy
##guluyor
Yangın
“Biz
duyul
çekirdek
mesai
OD
##diğimizi
Şar
hedefle
arkasına
Ölç
tarafına
Bö
Kağıt
Bulun
Yazıcı
Ziya
olurum
##TI
erit
##mektedirler
diyelim
ekleyin
kapital
Vit
Hatip
ita
kanlı
kuşat
bulundukları
giyen
sonuca
konuşmaya
dökül
bölgeler
Müş
solunum
olacaktı
Çankaya
ilişkilerin
Demokratik
##deres
Key
adayların
kılan
plak
sıkıştır
tedavisinde
alanındaki
sokakta
bulunmakta
heyeti
Pal
Şem
kabar
klav
prosedür
zihinsel
##lendiği
TAR
Ekran
“Türkiye
os
branş
bekler
“s
işlerin
açıyor
##acan
Devrim
yaşı
bırakan
açılacak
Sib
##ûm
##icileri
doğrul
sayfası
Jul
Sağlıklı
Tama
soruya
üstelik
aldıktan
##leyebilirsiniz
Karabük
##ward
imha
bulunmamaktadır
mücadelede
İYİ
##ico
##koş
##ingir
fos
##sası
Alı
##unlu
Erkan
fotoğraflar
deme
bebeğ
tarihin
cevabını
Seninle
baktım
Karadağ
Fah
Yor
talebinde
Yanlış
yürütül
oyunc
##RET
alıyoruz
görüntüleri
litre
anladım
fiyata
kampany
anlık
Ley
##iper
konumda
teşhis
ali
Dili
##ank
##amanın
kazanıyor
##tle
güzergah
burn
fırtına
etmekten
##ahisar
istisna
Usul
##35
mesafede
Teşekkür
telefonla
salonunda
##istir
kıymetli
mum
pist
gözüküyor
Yarat
geçmişi
hi
sitenin
hayatım
ödev
düştüğ
bulmaya
Ze
algılan
sütü
Kabul
gittiğini
katrilyon
kına
TT
Pekala
Dede
ürünlerinin
##isten
gerekecek
yürüten
müdahal
neyin
##masý
OK
dig
sağlayarak
Isparta
sayısız
##CO
##çekmece
otuz
##NET
##lar”
Hint
şartlarda
Ren
Dışarı
ordus
vesil
Yrd
ölçekli
##ağan
Doğa
haram
görevine
radikal
##ıldım
alındığında
gerektirir
##Bİ
koltuğ
çalışmalarında
koyduğu
hijyen
kaynaklar
Karş
Çakır
pembe
Mekk
##ento
##cım
##uzel
##ÖR
programını
##atlı
Tören
Suriyeli
içindir
okut
##omen
ikil
işçiler
programının
##elerindeki
güncellem
çalışmayı
112
##DEN
alışkanlık
Saddam
işlemlerinin
##uto
##ory
zorlan
tarihini
metrekar
alanın
derim
##ruz
muhtaç
##alp
küfür
yılını
katkısı
teşeb
zorundayız
eğitimin
takımının
deyince
##fone
bölgelerinde
Hakkı
##ges
gününe
halkına
taraflı
dakikalık
##ileceği
İdare
ISO
ayırt
##app
##LARIN
adayları
ortaklık
Beyoğlu
##eyz
kadınlarda
Şirketi
MU
##şar
##ikli
##ısın
Prens
durumları
##pazarı
konumunda
Oktay
Andre
konumu
muhat
Sus
kombi
Kastamonu
##ilemez
##tıp
söylenen
peşin
##ebilirler
Önder
kelimesi
##aşehir
eğlenc
##……
polisi
##İNE
tarla
Dakika
##port
Ford
Cat
galip
Saha
rota
zann
212
ES
##ettin
bölgesindeki
Sipariş
koyan
kalmayı
Kıbrıslı
Seyahat
bireyler
faydası
İstanbul’a
işlemini
##ELER
çalışarak
yüzme
yaparım
iyidir
konten
boyunda
suçundan
Ca
Marmar
sorar
özgürlüğü
malzemesi
bireylerin
##vis
iskel
yapının
Onunla
##alır
Birinc
yetenekli
##istal
mutluluğ
Adası
ehliyet
kuruluşlar
endişelen
Belli
maçını
meraklı
ilde
Yedi
refah
biliyorsunuz
##asay
alçak
lehine
izi
Operasyon
makal
hoşuma
##’l
GEN
##iro
ısıt
allah
GÜ
##çinin
##osuna
suda
seçimler
nedenlerle
##laşmaya
LED
finansman
değişti
okulun
üzgünüm
açılmış
Brüksel
kis
aileler
mekanik
off
inş
##anıyla
Milan
şehre
Taksim
pamuk
barındıran
##dex
gezegen
hani
sıralarında
##ojen
Piyasası
##ınç
tünel
yazmaya
desteğini
Isı
tamamlandı
##ılmadan
Sahip
yapanlar
Gönder
kutluyor
paylaştı
Karşıyaka
##gue
##usundan
ruhu
Siyaset
günlerinde
bilgisay
aramak
yaşayacak
##lish
send
##CA
##ispor
IN
kullanımına
ligde
ilgil
Güçlü
Dinle
saklı
Hit
lık
##HAL
Tanrım
##în
sandaly
maddesine
rakibi
hastalar
renkleri
gelişmesi
##abol
gala
yapısal
kolon
##renses
##DI
Internet
başıma
harç
##36
gölg
Akademisi
ödü
##lenmektedir
Chris
talepleri
teknolojileri
uzakta
##füm
ışığında
çaresiz
Makine
Yozgat
Sara
##langıç
suyunu
cal
planları
nikah
##tılır
hür
Tedavi
düşündük
geçirilen
Ayn
alıyorum
ster
koşullarda
##laki
sundu
yarışı
ceket
kılavuz
sonlandır
EĞ
nitelikte
açıklayan
yapmakta
Sözcüsü
Yönetmeliği
değerlendirmek
##ase
tutuklandı
söyleyeyim
##biliyor
milletvekilleri
##ilim
##lamayan
Bilgiler
Yılın
köpr
bişey
portföy
Final
telefondan
1989
muhasebe
##yarak
##ayeti
91
kirli
##lahat
##ness
King
Enf
Um
onayı
Avrupa’da
##emeyiz
istersen
##iyse
seçilmiş
neh
Hayal
biten
minnet
##izme
atmış
geldin
Arkadaşlar
kanama
##ýndan
afet
operatör
kaydıyla
Öner
Bingöl
##tığına
nice
sans
##21
Müslümanlar
perakende
keyfi
ÖSYM
Mary
yakışıklı
Şerif
kesint
hor
kurallar
Aksu
güncelleme
suik
odada
Yıllık
##larınızla
basamak
şaşkın
tıklayınız
##cımız
gittikçe
Ray
yılan
##ato
Vergisi
##lüt
##EST
tema
rev
adımı
##iberal
işçilerin
türden
##eçh
feth
kronik
aydınlatma
sıkıcı
##dalye
kullanıcıları
derinlik
dünyasına
kaldırmak
kullanacak
gördüğümüz
Tekstil
Kural
sesleri
##ılmalı
tehdi
##siyum
aldılar
çocukluk
sekret
iddiasıyla
toplan
görmüyor
kırk
problemleri
öğrenebilirsiniz
##ülten
##ısıra
Sence
Sonrasında
Esnaf
olaya
##ıyorsun
aklına
konuştuk
dr
oluşturulması
ihal
liradan
öbür
kazanım
Cinsel
Hil
iyisini
yarattı
Berk
##ekte
terap
##latan
Arif
ekim
açılır
yaralanan
Show
saatler
Yara
çen
##urlar
olsam
kabu
##OD
adının
gelecektir
##idir
çıkabilir
##ics
kestir
Devamı
çözmek
##kop
dinlem
katma
Bütçe
yaptırmak
hükümetinin
Ucuz
birebir
##sp
eğitimini
söyleyebiliriz
ambulans
Teklif
şube
yazımızda
##memiştir
BAK
##lýk
Demirtaş
##edecek
##lenebilir
sitesine
kre
##dis
AVM
##YK
değişir
SAY
##İF
intikam
Birlikte
dub
“h
yurttaş
kurtuluş
sadık
##icisi
##koz
SSK
uzmanlar
oluşturma
cihazları
çalışmada
dinlemek
Dizi
##igh
##dığımda
Vur
bölümleri
Başta
Bina
##şan
yanısıra
MER
objektif
Kutsal
##mayacağını
polisin
seçkin
##erin
SGK
Müt
eksi
kolu
Stev
Sami
minimum
saatlerde
çözül
Sinop
##ciliği
iştirak
Teşkilatı
##king
devred
İÇİN
##tayım
tatb
##calan
rejim
istemeyen
muhafaz
1950
teknikleri
yaptın
Yöntem
##mine
taşıyı
açacak
Satılık
İy
##lass
##seler
transferi
yakınlarında
köyünde
oynaya
kıt
750
müşterilerimize
yorumu
koşullar
aksiyon
Sorumlu
Valiliği
Ag
Kuru
çekildi
SEO
ülkemize
serp
gibiydi
187
oyuncuların
temsilciler
##ikatür
öğretmeni
##pp
##ünüze
yanından
başkanlığında
sistemde
Kızılay
##abilitasyon
Super
başarıya
##cular
yoğunlaş
izler
ressam
Muhtar
taşımaktadır
hastalıklar
sub
Şimşek
yatırımlar
bankaların
##AÇ
Bağımsız
yerlerden
parasını
korkusu
otomotiv
puanla
fiyatlarla
olmayacaktır
uçağı
Elif
Sub
Efes
dinin
sigortası
ölür
Hayvancılık
Alanı
sayıları
istismar
elimizden
##ction
bildiğim
Merk
ız
gelirse
taşımacılık
ülkelerden
Volkan
##mamızı
##dine
Putin
Geleneksel
bilerek
yurtdışında
Temsilcisi
##atür
##lenecek
GEL
Köş
gerektiğinde
Haftası
Federasyon
##edikleri
aniden
##üsk
##izma
yanındaki
Seri
bölümünün
istiyorsunuz
arayüz
##duğuna
##çay
denge
##cistan
Ran
yönü
##hum
taciz
Çelebi
Boğaziçi
fr
Lit
olamaya
##gusu
Menderes
çalın
şarkısı
anahtarı
##lamalı
global
189
sevinirim
karg
başkası
##ciye
Yayıncılık
arasındadır
kendiliğinden
Genelde
##last
eleştiri
açısı
müslüman
##mene
##balı
gitar
yama
Serkan
unu
uygundur
Veri
gas
##sir
İleri
Macaristan
cumhurbaşkan
söyleyecek
SER
##kırım
tarifleri
duya
zordur
yapısını
geceleri
akın
Değişiklik
##dıma
Mezar
##itim
çalışmalarda
çıkarılması
##esih
Tıpkı
UY
##mazsa
isterse
Yüzde
enj
iniş
geliri
sokağa
##aktif
##gele
tarafın
zahmet
##ian
artışla
gereksinim
##SİAD
##ike
sunacak
##RAM
Endüstr
Müs
ülkedeki
##üphane
gelmeden
hiz
sahası
güvence
nedenleri
ayna
##kut
##une
edemey
taht
ısır
##atları
##inceye
##’ndeki
##LEM
sikiş
bozukluğu
İstatistik
görevden
##mızılı
ilgilendiren
atın
dizinin
almıştı
Gazze
125
sonuçlarına
bulabilir
anlaşması
hepsinin
edilmesine
kâğı
iþ
##win
gı
##eff
DV
aramızda
Şener
kayıtları
desteğiyle
##çıları
Edinilen
koyar
şarkıları
##örler
konulan
Şişli
molek
zihniyet
tesisi
##raniye
##irve
geçirildi
örnekler
söyleyebilirim
bakır
Sos
##arş
##minin
kulübü
kaldık
reaksiyon
ömrü
olmayabilir
Organize
Diyet
TOP
Laborat
akademisyen
türkü
Yağmur
gitme
başlattığı
kalbi
Kelim
biyolojik
bakma
takımları
##imarka
mühendislik
yapmamız
##’ler
çalışmış
dosyaları
halle
fıkra
niteliği
koyuyor
sunulacak
Hakkari
oynanacak
Denktaş
SAN
anayas
belirlenmiş
Devletin
butonuna
kesme
##mayacağı
kurulacak
dereceye
AŞ
tutarak
platformu
diyebilirim
Kaza
##reden
riskini
##taur
##dıran
sorumlusu
derdi
keşke
duyuyor
sendrom
aleyhine
##uth
Ces
tahmini
hatası
kanalında
Efendim
nihai
Erc
Gezi
güvenliğini
##þtir
ilkokul
görmedim
Başarı
##gıcı
konusuna
diyecek
Adım
sarım
##emiştir
nelerdir
ustası
gitmeye
‘A
videoyu
##RA
##artma
kapanış
başlıkları
##46
yapılmalıdır
âlem
##crip
##ï¿½
ayağı
##au
Altay
işlemlerin
Ron
Vücu
itaat
şeylere
göstermiş
dilediğiniz
##aryak
Teknolojileri
lav
##ümün
aylarda
çalışmasını
samim
Rüz
terey
bakıp
ilişkiye
##oksi
Martin
Yardımcı
önlemleri
##abilme
##tasyon
ayrılma
verdiğim
Platformu
cezasına
artırma
##hendisi
manev
düşünme
kenarında
hafıza
kasaba
kaçan
Yi
okullarda
öneriler
##…”
##ukatı
komb
##eyiz
yararlanmak
koç
Ercan
TÜRKİYE
çalı
Bakırköy
elle
görüşlerini
berbat
Ke
Arnavutluk
Yüzyıl
görüşleri
yurtdışı
ağacı
niçin
üretmek
kullanılmıştır
kızgın
Keç
Sovyet
##İYOR
kayak
vaj
sitesinin
önünü
gemisi
google
düşünüyorsun
ayrılmış
##ben
görevlileri
muhakkak
##lot
Şif
temp
Sanatlar
ücretleri
ödemek
İşler
Bahis
##başka
##koç
kitabında
nefis
Coşkun
aktaran
##ğım
uygulamak
##ansa
##esidir
kalmıştır
kalkan
rüzg
gözyaş
İkin
itfaiye
soğan
hususunda
kemer
olursanız
MEB
BT
Göğ
dengeli
##BİT
filminin
boşanma
bırakarak
Derin
##itli
mühim
Anlat
imkânı
kentsel
karı
kası
##şir
nasip
Geçici
##ettür
iseniz
Uzay
iOS
hizmetini
müsabaka
katman
gözlük
sorunlara
ağırlığı
kablosuz
çıkarıp
ediyorsun
##teydi
##lamasına
Öcalan
##laf
Anahtar
düştüğü
acımasız
Gürcistan
Ticari
atlat
düzeyi
yetin
listesine
ayni
şeylerden
lin
Fransızca
ileriye
##ýs
sonbahar
##ls
sürülen
sosy
KOBİ
almanız
##gs
##osman
doğrultu
Kiralama
verilerin
dalı
partilerin
yazıcı
hizmetlerin
öneri
Norveç
görmesi
üyelerine
etmedi
penaltı
insanlardan
PS
koruyan
özelliklere
gecenin
Uşak
gücüne
Blog
##CE
Akif
karşıt
yazıp
with
sıcaklığı
önemine
Endeksi
Tec
hayvanların
##OP
Çekil
yapıt
turistik
dor
arındır
yazıları
isterdim
Kursu
yüze
Global
##baz
ini
Danimarka
filminde
Filmin
orjinal
hikmet
çarpış
img
##hu
gruba
Hükümeti
taktik
Amatör
Mimarlık
bilmez
yapılmasına
yapıyorsun
yemekler
Başkanlık
arkadaşın
##amızdan
Restor
başlarında
kullanıyorum
hastalarda
katılımı
dolaylı
Süm
gidin
hakikat
atıp
turları
aydan
bulunarak
çalışmaktadır
kuruluşların
##lamayacak
##eyip
kazası
gelebilecek
##anta
destekli
kızıl
##ĞI
sahiplerinin
muaf
##ılmasında
##yem
kamuoyuna
##odafone
##RE
yeterlidir
FB
İma
yaşanıyor
##lamasını
##kisi
Sky
savundu
Oscar
##ırız
kullanılmış
##eliğini
Şart
##bre
elimden
##ain
kullanmayı
cild
zorunludur
tutulması
Plus
Ürünler
##ranç
zararı
Lou
##otek
oluyoruz
imal
görüntüsü
Çim
aktarı
koyarak
yatay
bağışıklık
##inizdeki
Çal
##TİR
müf
sevindir
Angeles
yaşaya
dosyası
##dünüz
##UŞ
##lıların
Jean
değişiyor
Yel
sahiplerine
ihrac
versin
anlayabil
##ting
gösterecek
başkanları
elindeki
coğrafi
teslimat
##ıklar
avantajlı
tuttu
arız
##imer
##oma
Direktör
temelinde
çekilmiş
Akş
çağrısı
okumaya
endüstriyel
Yönetmen
rot
faş
geldiniz
Karat
esin
isteriz
##yınca
Emekli
##tiçi
##ternational
Atatürk’ün
Amel
yazılımı
##BİTAK
modül
yapılırken
talih
istemem
koridor
biliniyor
açarak
##fettiş
hırsızlık
Lan
gelme
helal
Ersoy
Sizler
kılın
açlık
âyet
Rehber
##seydi
sürgün
cumhurbaşkanı
internetten
##pon
vermişti
##memiştim
damg
tahl
direksiyon
SU
##ÖZ
kendilerinin
##enizde
konuşmasını
yarısını
Şehircilik
TUR
Müslümanların
Maltepe
oya
gezin
bölümünden
reel
cazip
değinen
Hük
birisidir
Nedir
Tekin
planlıyor
saldırıya
##içe
uncu
##ülte
devlete
hakik
eksiklik
Özbek
başkanlığı
Lad
tapın
inat
##rarı
fu
Trakya
Lid
iştah
yerlerinde
karşınıza
kağıdı
##baba
avuç
süresinin
Hatır
##lantının
Sayısı
Yükseköğretim
HP
şehirler
Okan
Big
sars
taktir
Sert
uyk
termin
Barcel
kabin
Lefkoş
dayat
##acağına
Aşağıda
##larımla
Mekan
Harika
hastası
oyuncunun
##avallı
yayınladı
##İMİ
sanatı
polise
##iden
orda
##iyeler
sola
sizce
Adli
dilekç
##eştir
##ahan
olayda
almaz
Millî
jandarma
animasyon
büro
##imdeki
mevdu
Sili
##suru
Bitcoin
anlaşılır
Aman
Karaca
##eya
başkalarının
kalkınma
kıyasla
evrim
Politik
Almanca
ödüllendir
##rojen
bır
işleyen
rent
belirtileri
sanıyorsun
maçları
gelirken
hesabına
##ayip
Burhan
geçerken
efsane
kaybetmiş
Yaşa
lacivert
tütün
Hur
İf
prof
Fo
şaka
##adın
ayrılır
Gizli
Ep
cephe
İlah
gittiğ
iğne
sıkıntılar
çözüme
sevda
alarm
açıktır
çocuklarda
##OC
##ble
raporda
tıkla
dönmüş
evleri
BEL
yanımda
dersiniz
eksen
hayali
hacmi
Patent
karışımı
tekniği
YGS
seyirci
Yatak
ergen
kuruluşlarının
Day
göstermeye
##gücü
Danıştay
Kaliteli
devrimci
müttefik
operasyonda
taksi
Yo
arke
MP
beşinci
iktidara
##lığınca
##osunun
Nam
kapsamına
zırh
##mon
bilişim
##delen
getirip
188
host
##eddüt
##lamaktadır
bildiğimiz
sınıfta
##ilay
omur
edebilmek
skan
gördüğünü
aktardı
bulunmadığı
len
kendisiyle
Oldukça
##sy
Meş
bulunmuştur
kabuk
farz
tamamlanması
Nob
Hersek
üreticisi
işim
seti
Gebze
aranan
Siir
ölümüne
ettin
İhsan
töreninde
maddelerin
Araştır
ikincisi
Lise
ürettiği
ticareti
beklentiler
bira
##vanı
manken
##erry
Mekke
olasılığı
öncesine
##ansta
Vücut
belde
koşulu
kendiniz
biriktir
öteki
##stein
yapmanın
Hamil
verit
##lig
##fon
Muhtem
##lilere
anlamaya
##eceğinin
##apur
yapmaktan
asır
170
Hizmetler
Yerli
##aryakıt
araştırmaya
olmamak
köyde
gününü
bitiş
tekne
Türkiye’den
değişiklikleri
hop
Huzur
deyişle
##cağın
hüzün
##Cİ
##azzam
şaşırtıcı
domuz
guzel
olana
şak
harcan
ihtimalle
törenle
Tarif
arkadas
oynar
hallet
Durumu
Kapsam
Köpek
Sw
Ecza
Kimya
##nie
Avcı
##osunda
Gid
mesajlar
burayı
bık
insanlığın
##ces
bük
rüş
takı
##etice
Rock
eklenmiş
anlaşmaya
geçmeden
strateji
Eylem
sevgilisi
##cis
Sertif
birimleri
oradaki
ray
elit
Halbuki
##main
##mü
##cağımı
evler
Haş
##cinsel
hesaplama
##’nu
dediğim
kurallarına
Coğraf
##kk
##td
Çocukların
nur
ülkelerinin
almasını
şampiyonu
Açma
düşmesi
takibi
Müdürlük
##mama
##Ã§
##dığınızı
hesabından
havale
##pu
geçtikçe
Davutoğlu
ferah
hedefleyen
##lov
bıraktığı
‘K
basına
uzmanlık
vatandaşın
Lirası
Sec
Dip
gitmesi
kurumun
##TAL
##ünc
Vadisi
##ENİ
nü
fah
civar
kaşık
kapsamındaki
##cedes
mesajları
Cemil
heves
##’taki
Dilek
Şırnak
düşmanı
olumsuzluk
yöneticiler
yapılar
koymuş
soğut
##oluk
Bill
##TS
oluşturmaktadır
tarama
Ekrem
tutulan
endeksi
politikaları
ıslak
arkada
TM
Belgrad
Dosya
##ahil
özer
##irmen
Plastik
SAT
Gider
Ceb
engeller
babanın
##iğde
##ememiş
dayanışma
vermeyen
ücretli
fiziki
##avir
devamını
EV
##iddet
sağa
##verengi
müze
##mıyoruz
##ırsa
törenine
Whats
hareketle
Benzer
grubunda
Masa
sıkıntısı
kaplı
senary
açıklan
izledi
##GM
indi
birç
soruyor
önerileri
kolaylık
vermekteyiz
Kâ
hasret
##fte
##onim
yoğunluk
##hen
##DAN
##ulduğu
pomp
başara
‘S
durumunun
##karahisar
Ermenistan
##anızda
kaptan
kaybeder
İşbirliği
başlangı
gücünün
olmadığından
##laşmanın
##sed
Link
##hem
##arlı
Metro
müsait
almakta
fiyatlarını
Kayn
edilip
annenin
ziyaretçi
nevi
##tısı
mg
Barcelona
Kampanya
##melerinin
şartıyla
bellek
verecektir
göstermesi
##INDA
##düzü
organizasyonu
seferinde
DP
##hak
şamp
##lüğünün
korumaya
Lider
Kırım
nazik
çare
##Dİ
özenle
sarhoş
görecek
Mag
gidiyorum
##ileştir
Stu
##tımı
katılarak
gidiyoruz
Sıra
tuttur
oldugunu
durur
vermedi
birikim
avro
Hocam
1987
Kims
göstermiştir
takılan
vahşi
oluştu
##til
##’yu
Mert
motivasyon
Siirt
Market
elveriş
##vir
##ışık
sunuluyor
biter
okullar
Fikret
döneminin
##ASA
duyuyorum
ekleyip
##fice
buluştu
Başakşehir
Deprem
Donald
vereceğiz
zeytinyağı
şeydir
##DU
versiyonu
bağlayan
uygulamanın
öğrencilerinin
##lywood
sağlamaya
TÜBİTAK
getirme
vazif
Bayanlar
zaf
sicil
Satın
##ınızla
##nel
eliyle
evinin
TOBB
kadros
tanıyan
##45
hedefleri
asist
Mikro
##cağından
ettikten
ilki
hükmü
##lileri
şirin
##75
EĞİT
##mil
cidd
golü
Niye
Köprüsü
##ıyorsunuz
ellerinde
Inter
projeye
##ûr
Eğlen
hoşgör
Chan
değerlendiren
hatun
katında
promosyon
çamur
mutsuz
##reğ
Gerçi
dele
azaltmak
Efendimiz
peşinden
şükür
Kül
Gam
dul
##off
çevreye
çukur
indirimli
ameliyatı
Richard
KAL
bakanlık
hoşlan
##ikasyon
içeride
federasyon
ezber
merakla
Word
tanınmış
Avrupa’nın
otelde
oğul
kullanıcılara
##RU
Şenol
kongre
sunulmaktadır
projede
Yürüy
##leşmesi
Meden
kumar
sipar
kendimize
sektörüne
yeteneği
yıldızlı
Sap
milleti
But
Yalnızca
Abdul
yakınları
Dans
tepkiler
##arl
oynayacak
koşu
tutmaya
muciz
Sony
yılbaşı
okyan
eğitmen
Dönemi
olman
Burcu
Kod
##abo
Fabrik
badem
##taurant
Çevr
Beykoz
kalor
kılıç
okurken
sistemler
sorununu
göndermek
konuştuğ
grubunun
##lamıştır
huy
belirleyen
zarif
konusudur
edilmez
mutab
videoları
kararına
dolandırıcı
teknolojinin
##ekler
örgütleri
karısı
Şans
##LAH
taklit
##ayındır
##elerdir
Zengin
Us
kurallara
çözümleri
gezdir
Koy
pirinç
taşıdığı
Alevi
Meydan
gri
kupa
karıştırın
Grand
##dirler
çevresindeki
soluk
Rahat
İnsanın
##uval
Tesisleri
Binali
##28
Lefkoşa
Benden
detaylar
##çilere
annesinin
tercüme
Buluş
oyla
hamle
panik
##AG
sıraya
havlu
##ızın
Pendik
##şu
vaziyet
davada
Akademik
yapıda
Cel
çocuklarını
üçte
patent
Melek
sıralarda
gerçekte
faaliyetler
ith
sezonda
Fit
sektöre
##ledim
olabilmek
yaklaşımı
olmayacağını
##anam
Ödülleri
Risk
##sion
verdiğiniz
padişah
aileleri
Sözleşmesi
tetk
tuşuna
Tiyatrosu
Haydar
tereddüt
uygulamayı
sini
Başlangıç
KAD
pencere
rekab
sorulara
Performan
açmış
##atta
tanımı
Merkezi’nde
##26
iri
getirmeye
tesadüf
kin
kalça
Çukurova
Ameliyat
sofra
takvim
imalatı
korsan
içmek
Yukarıdaki
inter
##nde
##opi
##bun
alanların
kararıyla
uçur
şikâyet
yapılma
ekonominin
##sınlar
Şöyle
bambaşka
gidece
hizmetine
Dünyası
tümü
1988
##laz
oturt
tutma
canavar
etmesine
Viy
salı
##uşturma
sordum
öğüt
yenilg
çeviri
istikamet
ur
##çık
Bilecik
##gazin
yanınızda
hiper
buluşma
Down
##lib
ışıl
garantisi
antrenör
duman
gürültü
##akâr
çoğal
dağılım
yayınları
yapısına
ömr
geçirmiş
Ataşehir
##ilmesiyle
şirketinin
şifre
Eminim
yapmıyor
Mür
yaparlar
##hh
Lar
edilmek
bayr
Europe
özerk
Yıllar
Otomatik
gürült
Çağdaş
notu
yumurt
Sözleşme
Dursun
##iyetle
down
inceleyebilirsiniz
sn
##âk
##layalım
hamilelik
##anak
Arşiv
açabilir
nimet
Günün
kızları
birbirlerini
##lamadı
uzmanları
villa
ümmet
Bilimsel
şirketlerinin
teşebbüs
##pik
Devr
servet
Rod
görüntülü
Başkent
##ct
Köyün
merkeze
Finansal
millî
Hristiyan
Milletvekil
Zek
finale
Trav
##feti
Gündem
Açıklama
Ram
Mid
VER
IV
kanunun
kurmuş
Divan
konuşması
alacağım
##ember
teorik
##pektif
güldür
tasarlanan
Başarılı
acent
hizmetin
Ora
üzüntü
şiddetle
avukatı
##yetler
Tart
ekipler
gördün
sıfat
Sizlere
Kü
Win
çapraz
kötüye
ilköğretim
Sevgi
Kütüphan
##yah
öldüğü
yıllara
##lüğün
prov
tarımsal
##opa
kalitede
Modelleri
##larımda
Çalışan
div
inandır
balon
##ölye
gov
Hon
entegr
anlıyor
paraya
Nehri
##sev
Edebiyatı
yerle
mevs
yenileme
hizmetlerinin
Zey
girmeye
dergisi
BİLG
##İYET
Yolları
##meyeceğini
aranıyor
ların
adresini
##kurt
gecede
taşıya
benzeyen
Albayrak
gerçekleri
spr
yapmaları
hazırlanması
haklarının
Sing
Şükrü
nok
incelemek
onda
##o’nun
Turnuv
olmamış
yedir
Jose
hazin
abone
çalışıyorlar
çalıştık
sınıflandır
yaşadığını
Edi
Haluk
hatırlıyor
Öğretmenleri
görülmesi
doğrultuda
Deri
Otomotiv
##larımdan
birbirleriyle
cumartesi
arttırmak
yasağı
##ebilirsin
dağın
Parlament
akan
ilişkilerini
birinden
gazı
acele
##dirgin
sürdüğü
periy
tedbirler
projesinin
kemi
adap
##ANS
##lemez
dalında
emzir
şut
##iğini
aramaya
##ms
yazdım
açıklamaları
endeks
##mayalım
böylesine
##otu
Kamer
##acaklar
##dunun
ellerine
harik
kayg
kutusu
potansiyeli
tahrik
##LÜM
Harit
##mese
Puan
müsaade
yapmasını
haritası
güvende
mur
Biliyorum
Maalesef
dışarıya
oynamaya
ekranda
start
##sünüz
##ileceğini
tanr
##ody
Ju
listesini
İcra
DEN
International
müşterilerimizin
çevresi
öldürüldü
elektro
##unuzda
çeşidi
yazının
stüdyo
bölgeyi
KHK
##ılmasıyla
##33
Katar
takımda
##tij
seçime
bırakmıyor
Muz
müsabak
yapılacağını
##eller
çıkaracak
uluslar
Tebliğ
atıldı
Çil
oldugu
Tıbbi
burcu
yakalamak
Merak
çıkarıldı
gu
##ozisyon
gelene
Meral
Ağaç
arar
##ılmaması
artacak
Erg
ilçede
mam
##işimi
verebil
Hakem
##rafa
nehir
içini
satmak
beğeni
1984
Kus
Mercedes
seçmek
muazzam
makalem
##fir
vuran
Takip
karab
yükü
üretiminde
vek
Niğde
dönemlerinde
sorumludur
Erdal
Danışmanlık
hukuka
makinası
##veti
##dest
senedir
varol
kıç
iktidarı
yüzlü
ediniz
kadınla
benzersiz
İMKB
Göztepe
yardıma
##ayır
ederseniz
talimatı
izleyebilirsiniz
##ildikten
kuyruk
tanışma
suikast
##box
odaya
minibüs
##FE
rock
yatırımları
haya
HAK
tapu
##99
1982
1985
Konferansı
Yetkil
##oga
gömlek
Rena
açığı
Dor
Açıklamada
alüminyum
destekler
kud
durumdur
eylül
mektubu
##DIR
periyo
Papa
burj
Şev
Sempoz
gözde
Atilla
elimizde
alınıp
biliyordum
240
zihin
düzenlenmesi
ilahi
BÜ
##anızın
Nevşehir
tribün
Endüstri
bağımsızlık
Yarışma
1983
Premi
##get
bölü
güzelliği
##ksür
##ınızdaki
Atlan
sorununun
karşılığını
yazarak
İzin
##DS
seslen
şarkılar
üstesinden
azalma
Fikir
olaylara
##aklar
ödülünü
yaşını
Zirvesi
soğutma
Wi
##oba
##lasın
kupon
Banyo
Alper
kitabını
360
##lanmamış
riskli
makineleri
harcı
Yarım
##larınızdan
Sonraki
başvuruda
dünyaca
##IFA
yerlerini
Ayakkabı
Zam
uğram
kaybettiği
Göre
##’inci
##üydü
##ook
sağlayabilirsiniz
hapishan
öğleden
birşeyler
##emezsin
yuva
çekmeye
bağlantısından
inanan
ambar
Iş
hizmetlere
olacaksın
##mişler
tahvil
değerlendirmeleri
vücudu
dişi
##TO
faaliyete
Anı
muht
kalmadan
##ref
Ardahan
çatlak
Vah
Kemer
##ropol
Ereğ
sayısına
bulunmuyor
##lic
##kuş
çıkarır
yaramaz
düşündür
çarptır
felsefe
inkar
Baskı
##47
##mert
Lee
telaş
Adres
ağzı
edilirken
konumuna
##EG
duyguları
sper
çıkarıyor
yönetimine
Çınar
dönmesi
bayrağı
##acaksınız
davranıyor
fıst
rahatça
zulüm
futbolcular
feda
alındığını
Sonuçları
ödenmesi
Harry
Zen
kaymak
##IV
Christ
Bankacılık
severim
haksızlık
alanlara
tatili
##latır
buyurdu
vatandaşları
##izler
Tho
verebilirsiniz
##sinler
##lığındaki
verilmesini
akışı
##pir
havası
Vodafone
##alın
adımları
batır
vaka
kapılarını
algıla
Jac
##fab
müzisyen
##SAN
Aşırı
kalarak
ra
Federal
##row
“V
Server
AÇ
faydaları
105
çoğunluk
düzenlemek
dikiş
Yahu
lojistik
atmaya
##memişti
inanıyoruz
izah
##diyse
kuşkusuz
Tag
rok
Rektörü
##opol
kullandığımız
tarafsız
gönderme
##eceklerini
okumuş
farkındalık
düşüncesi
SMS
##olsun
sultan
İkti
seramik
tedirgin
Baraj
my
Şimdiye
otelleri
##burnu
çaplı
kutup
USD
durmak
iftir
konuşulan
Yetkili
listede
##ılmamış
Kararı
##ımına
affet
görmezden
ml
##mişlerdir
uygulamasını
Ortaokulu
Müft
MİT
kl
konulara
maçının
##lip
şeri
##rut
Tehlik
##çıların
fırında
##nü
##Türk
##GC
karlı
aman
yanıtladı
Gençlerbirliği
pank
sürat
##lemesine
Hid
gündemde
##iyen
##kinden
cad
##CD
##amm
##üyoruz
Ltd
çizen
##duğun
Özellikleri
başlangıcı
“U
ortamlarda
Emine
gerçekleşmesi
##ovasyon
isteyenlerin
poşet
sürün
geçit
Yeri
##ımla
yürüttüğü
makar
fay
Muhtemelen
ellerini
biriydi
##BP
soruların
Denizi
yazarın
Rec
##YO
##TM
##çam
Kazakistan
##pen
Cla
##üşe
Toy
1986
##ille
Kiralık
yapıları
bunda
temeli
##tığınızda
alamaz
past
yon
bilemiyorum
cı
Latin
abar
##mışlardır
tesisleri
##üfer
##ografik
müdürlük
Bayındır
niyetli
Leyla
unsuru
görebilir
öldürdü
ziyarete
traj
ifadeleri
Set
geldiler
üyeliğ
Bran
Çiğ
suna
oranını
##eşim
kullanırken
oluşu
aldıklarını
mahrum
##ülya
duymuş
alanının
adamla
olabilmektedir
TOKİ
##digi
kozmetik
yaptığın
Ödeme
sahnede
faaliyetlerine
##mayınız
aradığınız
alabilecek
##izza
Diler
büyüklüğünde
FIFA
askerler
sensin
Açılış
bire
çıkarmaya
çorap
kalmıyor
gazetecilerin
Muş
mermer
Senden
Bec
PYD
profesör
##INA
kurarak
onaylı
Obama
##ANI
##düğüm
bireyin
çerçeve
Kep
tabela
sandalye
yapımcı
konuşur
olabilirler
atacak
eklemek
bilgisini
tutup
püsk
diyorsun
##ımızla
santim
ayrılık
ekonomisinin
Konuk
##’lerin
Yahud
Marmaris
Evlilik
##tün
arayın
yakalaya
##efendi
güçlerinin
##cağının
##erre
odaklan
eyle
sulama
kalkıp
sını
Meryem
yaya
##onomik
dileriz
biraraya
artırılması
fant
olunur
##iyete
desteklemek
savaşta
##astır
saldırıda
Kulak
1500
hatıra
ihracatı
##’lar
##osh
ciddiye
şudur
Borsası
uzlaşma
futb
Medine
1974
##ığ
infaz
##ss
##tiklerini
Hukuku
başvuruları
##çağ
Ergen
Nok
ılık
fol
gözetim
##lemeyi
çocuklarına
çalışın
##lm
stad
html
makamında
sonucuna
eylemi
##yumu
Giyim
hedefliyor
Nazım
ayıp
450
olduğunca
projeyi
Bilindiği
baskısı
bakımlı
##MAZ
yönettiği
sağlığını
##YS
öğrencilerine
Sahil
Aşık
yalıtım
##stem
ailelerin
yeteri
ülkelerine
parfüm
kayd
Kuv
Kendine
komedi
atlet
kalmayacak
Çağrı
English
Cal
anlamsız
##liğindeki
##mayız
Gayrimenkul
bursa
##latıcı
YPG
mart
##liliğin
Şehrin
Hepimiz
Yiğit
ağzına
taşım
yayınladığı
kimdir
tasavv
##ıldıktan
avantajı
Burdur
özelliklerine
Lam
##EMİR
arıt
parametr
özelliğine
Kargo
belgelerin
##amadım
dizel
##izy
##mart
Ordusu
çizim
Çavuşoğlu
Beh
yazısında
GÖR
Vel
dolandır
Sarıyer
malum
Babacan
Charles
üçlü
##iliş
markanın
Muhasebe
fazladır
##pas
yedik
etkile
kolları
bilginin
qu
öldürür
şimdiki
silahı
ipuç
ısıtma
yetkin
Aslı
firmasının
durdu
##olf
grupta
etmekle
pusu
Tamamen
görülmüştür
kısıtlı
Semin
derse
sabaha
telif
leri
gerekçe
pers
Sefer
##irk
çıkarın
nakil
üretilmiş
Posta
antalya
hücum
Ülkenin
Note
##deri
oluyordu
Sanal
açılışı
ov
anneler
tenis
taktirde
Yayla
mücadelenin
##bert
##lallah
##not
foto
imkanları
koruya
Ceylan
ödemesi
seyred
cüzdan
gizemli
Akademi
##geleri
Kesinlikle
Viyana
eskisi
metabol
ekleyerek
##estel
fiyatlarının
önerisi
Ümraniye
Aylık
sup
Hap
nüfusun
##ex
öncülüğ
severek
Üzerinde
##ipto
diyabet
##batı
Cid
pürüz
kalori
numaraları
Cihan
DEV
Organizasyon
bankanın
tüc
Büro
Tüketici
ekonomisine
stand
örtü
eşinin
seçme
yıllardan
büyüklüğü
Batılı
Haydi
##ware
##tatör
Ölü
Kaçak
habere
##lına
##iser
Bilgisi
Beyin
konuların
güvenle
##uluğa
asil
Yedek
aslan
mahkûm
##ýna
alacağınız
kapıları
OY
##sn
Tef
klasör
görüşmeleri
gösterisi
##rettin
yüksekliği
Nüfus
##29
düşünmeye
kalabil
gençlere
İH
diyordu
hazırlanmıştır
beklediği
metod
Halen
askerleri
Bektaş
sabırsız
Lav
alakası
bazlı
kooperatif
Bizde
Özal
##emizdeki
İttifak
Kısacası
antibiyotik
Ebû
##ilikon
##cılara
yumruk
kurmaya
noter
rüşvet
yüzük
186
ölüme
peşine
##iğinin
baya
aziz
söyleniyor
##memizi
Yemen
Raf
uyruklu
öğün
terörle
zorunluluğu
farklıdır
ABD’de
Ayı
toplayan
nezdinde
##ath
yapabilmek
Çap
bulamaz
soykırım
bunlarla
##eğinden
kapasite
Maz
çalan
IS
sunuldu
geçebilirsiniz
verilebilir
şun
burç
Kalı
anıt
##yorum
Çö
Bölgesel
davranışları
küs
By
##leridir
dönüşü
doğuş
düşüncelerini
akı
Paket
##vekk
liderlik
torba
Kilisesi
daral
West
Gur
şişe
fizi
ANAP
açın
içermektedir
pazarı
##adamı
opt
haziran
köşesinde
doküman
Thomas
partisinin
hesabını
satım
sevindim
Bireysel
Renault
Tarifi
kost
tümüyle
YET
Ebru
kıza
##rupa
Protokol
##şür
##teb
hallerde
gecikme
##sağ
##sana
sistemlerinin
yaşındayken
##kesi
izlerken
hukuku
Belediyesi’nin
Antren
kesimi
DVD
büyüklük
çiğn
##âye
##ayarak
gerekmez
kast
oluşturdu
##ligi
##ilin
görülebil
YAR
##larini
##ÜŞ
tanıtımı
şansını
Club
süreleri
kanalizasyon
alandaki
saldırısı
##48
uzunluğu
##lahattin
Anton
##lendirici
denemek
karşılayacak
Benz
süresini
eşyaları
Felsef
##eğimiz
tutku
sevgiler
mân
Sik
##likdüzü
geliştirilmiş
ON
vatandaşlara
etkilerini
##malarına
##eria
düşündüğüm
motif
yolunun
oturuyor
dondurma
kazana
görkem
onca
projelerin
aradı
başlangıc
uğrayan
iddiaları
bulunduğumuz
##elerdeki
##etiği
KAP
Dinç
ÖZEL
##leştirmek
koordinasyon
mülak
tüz
SOR
Tuna
tutacak
##anıt
Saadet
Yalan
olmasaydı
muv
mağara
toplamı
hayatlarını
tasarımları
Home
damga
cevaplar
ortalaması
giderleri
tanımak
Tro
garantili
end
girdim
Afyonkarahisar
düs
istemek
meg
Filmleri
##ilmemiş
giydir
##yonu
haklarına
yöntemlerle
görevinden
Makina
hamam
ilinde
krizin
bağlama
soğu
Oran
güneşin
çevresel
amaçlayan
Bazıları
Fre
duygularını
diplomatik
##hret
Hollywood
##teyim
Yumurta
Tuzla
seh
tercihi
İS
Yönetmeliğin
tersi
cer
hatalar
iğren
canını
elimde
olacaklar
Mağaza
anlamını
Alım
çıkmasını
alınıyor
Öğrencilerin
Mich
Etkinlik
Saygı
##ix
gidelim
##emedik
mama
iddaa
yaşlarda
yakınında
motorlu
sıkıntılı
Transfer
##ALAR
ekibinin
##ACAK
Mul
sadakat
kontenjan
harman
baban
mezhep
oluyorum
vermekte
##sterol
##üyorum
Porno
Tercih
##nat
Topluluğu
anımsat
Düşük
yaklaşan
isimlerin
yapabilirim
yayılan
bildiren
gelenler
##lop
##55
başaran
ülkesinde
dikkatle
görülecek
ediyorsunuz
konus
göreceğiz
sitemizden
romanı
şubesi
Kooperatif
Abdur
Yargı
Tir
süpür
birliktelik
DYP
Gündüz
tarzda
Tra
Istanbul
buralarda
istenmeyen
Rep
Koleji
hatırlıyorum
burc
kade
yapılabilecek
kuzeyinde
##tara
noktadan
toplamak
kullanımını
kişilerden
pot
##DP
Rady
alalım
mutluluğu
tadi
Libya
teması
##keli
balı
##lacağı
imzalanan
##gas
##lenmesini
##hassa
azdır
kazanarak
vurgulayarak
belirley
Ark
temmuz
işadam
bırakıldı
gizlilik
istekli
rüt
##ake
##ikleri
##asayfa
yılki
fedakar
hom
##iymiş
yoğunluğu
##leştirilmiş
düşkün
##namesi
##mýþ
##ardı
İlkokulu
Ereğli
tedbirleri
yakalanan
hatırlattı
Britan
ligin
getirdik
##uzun
meh
##istlerin
götürür
çekimi
ulaşmış
##mann
ulaşması
kıdem
listelen
##ELİK
oluşacak
##dilerde
geçmişe
1920
##lemeleri
casus
unutul
değerinde
bölgeleri
##salar
Büyükelçisi
kuram
paran
##lamasının
##madık
Şunu
##cısının
erdir
0212
bölgesinin
olabilirim
cins
kullanımının
kullanılmak
zanned
gelişmelerin
liberal
sarışın
almaları
paralar
yayımlandı
karşısındaki
seferber
sanatçısı
##emeyeceğini
girme
##ladığım
ardında
##ABER
Düzenleme
gelişmekte
twitter
sportif
Sözleri
kelimeleri
bitirdi
bölümler
##eto
##sor
##oroloji
##iğine
##eyebil
çöl
yüzleş
##pres
olabildiğince
vücudunuz
geliyordu
##kadir
islami
kimseler
okuyor
Makinesi
yaptırma
yerlerine
vücuda
Profesör
##ision
Akar
güzeldi
çekirde
ertel
işlevsel
kıvam
Bom
##adası
Birden
sanıyordum
geçim
Fe
slogan
OHAL
üyelerin
##meyle
sürek
bayağı
biçiminde
bulunabilir
##77
edersiniz
Endiş
##ebe
konuma
##âzım
bahçesinde
Havaalanı
Reg
tavr
havaliman
izlemeye
##Tİ
tom
çıkmasına
yelken
Mike
##lağı
##oterapi
##temiz
telefonda
çalışanı
##viv
##aton
muamel
Bı
Dayanışma
ekibin
Sedat
##rusu
##dekiler
geliştirdiği
ahlaki
Biliyor
görevlerini
CIA
cek
okuyup
öldüren
hane
babamın
##ortalı
ALT
##ule
Yürüt
##ebilme
Victor
Tüp
ölümünden
Sigara
Hisar
Kendisine
işçinin
##irdi
indirmek
##iyes
Danışman
Değişim
Sendikası
##ilet
mübarek
##dom
üstlendiği
İzzet
bebeği
usulü
BH
##ery
merhamet
kıta
Lor
mütev
işlerde
##eğmen
dilde
heyecanı
Basit
##iyetin
Va
içeriyor
tems
sağlamış
yönetmeli
inceleyerek
çalışacağız
geleceğin
Group
##kân
çalışanlarının
ruhunu
Kalem
##ader
dünyadan
fikirleri
##ğından
##ünüzde
col
alınabilir
Uludağ
##jder
önünden
Rey
yenerek
kırıklığına
##akları
Gerekli
Ozan
Koltuk
Bisiklet
Abbas
kartları
##azıt
kiralik
Kerk
hareketler
##ûlullah
gereç
bilek
##cm
##mamıza
##emezsiniz
Erbakan
senet
kapısını
Green
##üven
gündelik
BÖLÜM
##akip
Namaz
##gız
bürokrat
tanıdık
##sah
##ladi
##itleri
Bitlis
söylemeye
yaşıyorum
görünümü
Başsavcılığı
aralıklarla
Kendimi
pekiştir
##ilmeyen
önlenmesi
##þý
Kimlik
##tions
##ll
2020
değerlerini
yansıtan
çayı
##naz
güçler
giderilmesi
tümör
##HAN
olmakta
sağlaması
yönetimindeki
Babası
Nus
hammad
##ÜM
destan
Eroğlu
##elerce
O’nun
doğmuş
STK
##osta
##imdir
aslı
bakıma
işletmec
Selahattin
böylesi
sesle
doların
##53
Leon
Birincisi
Göğüs
##iew
##cus
İnc
Özgürlük
Riz
kullanabilir
içerikli
Atık
belirler
yemeğe
sizlerde
nisan
mül
trak
Aley
gönderilir
##ecilerin
kaydır
Grafik
oyununda
##lenmeye
canı
Orgeneral
##lıoğlu
kişiyle
sürümü
Manav
##’teki
##amadığı
saate
##44
##evher
kentte
soyut
##laştı
jüri
şaşırt
Rol
Güz
mola
hol
##ladığınız
döküm
Step
lerde
Evleri
##ladıkları
yo
üniversiteye
##no
BUR
##tiğinin
ayından
##ero
Müdürümüz
DHA
Sayfası
sözleşmeli
pilav
sırası
Sovyetler
Dür
aj
ikisinin
kullandıkları
değerlendirdi
dediğini
Annan
kuşku
eşitlik
duyduğum
Sef
monte
kimya
Kariyer
çalýþ
yönetmeni
##jı
sağlayabilir
##oksit
obez
alınacaktır
şefkat
kudret
LG
Lüt
çıktık
yüksektir
Özür
eng
haftaya
erkeklerde
Gelişim
Hayatı
Sk
Lük
Tunceli
elemanları
münaseb
havayolu
alanını
##latmak
bürün
hastalıkların
##irsiniz
anma
ellerinden
güvenc
##melere
alınmasını
##sıyla
uygulanabilir
aşağ
Fethiye
za
Yıllardır
Refer
merkezinin
hazırlama
adından
inin
kilise
GSM
yans
Hazırlık
dille
havuzu
değerinin
katled
meb
DOĞ
yapmıştı
##ilmesinden
kısır
pazartesi
AG
abla
Özlem
karşılıyor
##uvarı
##landığında
##i’nin
kalka
uyguladığı
##oslav
##chester
güle
birincisi
otele
##ehan
algorit
Ty
rejimi
nasil
seg
Çeşme
haklar
bronz
tüfek
misaf
korur
yetişen
cihazın
dinlenme
sonuçlara
sözcüsü
iyim
borçlanma
keşf
belirlenmiştir
samsun
##hidrat
kimler
girmeden
örgütünün
Tru
kalmasını
kurulumu
arkadan
oyunculuk
deneyin
kuyu
Ahşap
Değerlendir
MİL
taç
##acağımız
fiyatlı
Esad
arkadaşlarının
akar
##saf
mantığı
hayvanları
Kalan
Tüz
kapasiteli
yalvar
ayıran
dışa
hazırlıklarını
Müdürlüğüne
ideolojik
vereceğini
Rem
karşınızda
yaratıyor
adrese
kendin
tanımlanan
Madem
##kay
Ofisi
Akhisar
Bedava
##iban
##rov
fırsatları
gecelik
koruy
öksür
##iyla
##emeyeceği
coşk
Rüzgar
yed
hoşuna
Dünyadaki
birbiriyle
Eleştir
ho
lamba
farklılıklar
Kayser
Pala
söyleş
katına
sorunlarına
taşıyacak
Çankırı
##acaksın
istediğimi
pişirin
alacağız
oğlunun
Halkın
senesinde
Müm
açıklamasını
sevdim
maçına
cahil
mutluyum
ibr
hort
geçtikten
##müştü
teyit
##abıta
Ülkemizin
istiyordu
kullanıcının
söylüyorlar
verilere
havanın
karikatür
aralar
kişilerde
Denizcilik
seçerek
##lemeler
Aktif
##ilerimiz
Kerkük
işver
tamiri
##dığımızı
Anlam
taleplerini
##yazı
Konsey
bırakmış
Görsel
##kapı
Nişan
Charlie
ihtiyaçlarına
vuru
menaj
lens
ekibimiz
hedefe
##lenmek
bölgelere
Dokuz
merkezde
olunan
##lanmasının
Alacak
fotok
mahallesi
Etraf
Değişken
5000
öylesine
##DER
Duygu
Aktaş
##imlerin
rutin
kapağı
element
jener
gerekiyorsa
##’dır
##yoruz
telefonları
takımlar
yığın
Vef
##iyeri
##şaf
değiller
mensupları
yollarla
YouT
şartlarına
beye
fare
evlerine
Akr
tehlikesi
Mav
Listesi
##işkin
Tör
ilgilenen
##nesi
İler
##31
ödenek
devamında
güzeli
##sch
yıkım
caiz
##mıza
Hülya
çıkarsa
Kalesi
kahverengi
patlayıcı
uzlaş
kişilerle
fantez
ortama
irtibata
tanıklık
kulübün
Power
##iliğine
reg
TEKN
Kırşehir
tahamm
Zih
Planlama
hediyeler
kaçağı
Nokia
##gunluk
portakal
Asla
##rünün
esmer
belirleme
iktidarın
açılıyor
getirmiştir
golle
##tanı
yaşantı
hayret
mücadeleyi
sular
etmektir
uygulamada
verilecektir
Muk
##yapı
problemler
elemanı
##asan
##ilendirme
ortaokul
##ulus
mayıs
##gay
suçlama
##ülüğü
karayolu
icat
intikal
tonu
##lekli
etmen
VAR
Kadınların
##kz
oluşturulmuş
oyununu
Neş
hissettim
eşim
köle
Kalb
haftalarda
eşcinsel
##ded
arta
ODTÜ
Buda
yanaş
oluşması
eğitimleri
yöne
çabası
Bakanlığının
tasarrufu
alıntı
tozu
yapabiliriz
tartışmalar
oyu
İkincisi
öğrenciye
##ilmeden
Teşkilat
modelini
saygılı
seçimde
Mevlana
Saman
zirve
yapacakları
Merhabalar
kilogram
##’ndaki
##üsünden
##İNİ
##AYA
çıkmıştı
ödemeler
##cem
geriledi
##varı
maf
metrekarelik
hakkının
Veya
##rian
tarayıcı
bunca
kazasında
##ülin
##nal
kabl
enstr
tamamlanan
paylaştığı
sunmaya
devasa
alabilmek
##konusu
Şaş
türb
bulunmadığını
Bankalar
ilacı
durup
umudu
Nis
##ilmekte
sanatsal
##onomi
##unk
düzeltme
miktarını
Enver
Henry
Lik
ceset
Talep
balığı
“Ü
kıp
yatırımı
##cılığa
Taner
##ostal
yıpran
verdiklerini
incelenmesi
Kırıkkale
geceler
öğrendik
beklentisi
yaşadıklarını
sebepten
çarptı
kameralı
çevrimiçi
Zorlu
rehberlik
mühür
okuldan
Endüstriyel
Piyan
TL’ye
öldürülen
kanalları
ney
Bartın
yorgunluk
çekiliş
bakıyorum
sözlük
##lığım
edilmişti
tutarlı
buda
öğretmenlerin
kaynat
Almanya’da
memnuniyetini
zed
anlaşılan
##laşa
beklentileri
arkadaşlarımız
heyecanla
atanan
tadına
Yapımı
##dığımızda
muhatap
Disiplin
Fev
Hiz
Kaplan
##tý
beklenmedik
##ağım
##lıklara
##cid
hedefler
Amerika’da
##estezi
yaratık
Kahvaltı
##avantaj
fesh
Bakımı
##BS
##vri
00’da
##bor
Şiddet
diyebil
duygular
gerçeklik
Hi
edenlerin
ifadeler
##arch
##ılmasından
Kerem
Oral
vatandaşlarımızın
sokaklarda
yayını
##ömert
##inat
##irsin
elverişli
ekiplerinin
denetimi
##86
Cav
isimlerinden
##riye
##çılığı
düşünülen
paylaşımı
tanıştır
hayatımda
Oğlum
hataları
##UY
##ado
Sunu
kavur
sunuyorum
forvet
baska
sahibine
##bis
##olasyon
##larınca
asa
FBI
##ları”
özeti
BAY
sitelerinde
zevkli
anki
coşku
ekranı
instagram
pansiyon
##avul
##emiyoruz
armağan
teâlâ
ziyaretçiler
##enni
##ıkçı
##kestr
duruşu
sığınma
##ugh
Arke
konuşurken
yararına
iddiası
âlim
Şuan
##lanmayan
kalkar
düşünüyordum
Dom
geçirilmesi
nedense
testleri
Alkol
##îm
EP
kaptır
arttığı
bülten
##alacak
Marşı
Malzemeleri
yönüyle
##layacağız
esen
##KS
renkte
Finland
işlere
açıklık
yönetimin
rahim
hayvancılık
Aksoy
Nick
esrar
Allahü
raporunda
binalar
tartışmaya
kullandım
##ustur
partiye
Anıt
dinley
kullanıldı
şüphelen
zavallı
kazandıran
Bağlantı
olayla
konuşmayı
bilan
Beslenme
yazdık
yarışması
Cemiyeti
nüfusunun
##lacağını
fikrini
##bih
gitmeden
etkinlikte
bagaj
tutulur
Sarık
zamanların
değerlendirmesi
Joe
bilirsin
##deleri
görevler
Las
şem
konsantr
hâlinde
gazetesinin
verebilecek
sarımsak
faaliyetlerinin
sonuçlarının
demokrat
tarikat
Şeytan
##rey
yayla
firmalara
eğitimler
gelişimini
bitmiş
adresinde
hemşir
Yapılacak
##еr
##ndan
eklenen
faktörler
geçmiştir
##duğundan
Allah’tan
molekül
Kürtler
açıkçası
yıldönümü
kapatma
berabere
Aren
##kiye
Kub
ödenen
Sibel
edine
##eledi
Tahmin
çalar
otomobilin
hazırlayan
##lacaktır
tekrardan
demeç
aralığında
Kutlu
Hafif
belgelen
Bahçelievler
pislik
Villa
psikiyat
php
bahan
bırakılan
oluşmuş
grupların
teyz
Egemen
Ton
kaçtı
kullanabileceğiniz
taks
aydınlık
Depo
verelim
Dic
Bugünkü
Daniel
amp
mücadeleye
dünkü
##KEZ
Tony
almıyor
fikirler
##evî
çin
sayısal
om
Anasayfa
normalde
kalsiyum
Nov
götürdü
bankası
##taraf
pes
etmeli
Parlamentosu
Keskin
diledi
Fuat
prestij
bolca
##iyeye
##ramanı
NBA
yerleşik
##fin
Alın
dilini
kadrosuna
verildiğini
##ista
##affer
##oğol
telefonun
##orma
tahrip
##alara
##larlar
##ayiş
kuruma
sent
fasul
##giniz
Detay
Sesli
Meg
##ansal
Sitemizde
yürürlük
olim
GER
sınırlarını
Soylu
paylaşan
##ırdı
##dükleri
Yem
gidermek
geçersiz
üretimini
kabiliyet
UK
Kazım
azami
Hükümetin
görüşünü
yaparız
##etini
Üzgün
plaka
yiye
dedikodu
YouTube
Okuma
kiz
askıya
bileşen
izleri
ordusunun
inkâr
olalım
kristal
Hüc
gercek
kontrollü
perspektif
grubuna
saldırıları
dönüştü
Toplumsal
bağı
101
tasdik
sağlayıcı
girerken
SET
aradım
Dini
arkadaşımız
satışları
belirlenecek
bedelini
cehennem
geçirme
levha
Bre
rehin
yollardan
DSP
DÖ
fragmanı
sust
Kok
gerekebilir
lap
iyimser
##mith
kaynaklanıyor
sonucunu
uygulamalı
##tane
okulların
##bie
##iyye
##ozan
##umdan
Gökçe
yaratı
seçenekler
salak
tatlım
##rr
akıntı
hazret
verilerek
##ladim
gelinlik
olaydan
söylediğini
Gazeteciler
mevduat
ilerliyor
olabilirdi
##ENT
dağılımı
yanda
düzenlenmiş
sürücüsü
köyün
sanatçının
görüştü
yükümlül
##burt
##ırt
istikrarlı
United
##die
alanlarının
pasif
##df
##ordu
nispet
şarttır
göğs
orgaz
Roy
##eliler
norm
maddede
Takv
##ous
##kol
Konyaspor
Abdülham
kapsamı
kalmıştı
dizide
kızların
yapabileceğiniz
##sene
kısalt
Tolga
##ст
girmiştir
aralıksız
Kaynaklar
kaynaklardan
Okyan
fidan
olasılı
Anket
sağlığına
benimsen
Üniversitesi’nde
sağanak
##mıs
bulaşık
Ov
azalır
##zade
pompa
alık
riba
we
AİH
tahakk
yerleştirme
##liyesi
Stre
##evre
Venedik
anlıyorum
medi
##ledik
çıktığında
ÖĞ
##mah
yılındaki
##ðu
tuzak
iyileşme
dilerseniz
Taşın
görünmüyor
Kn
zorunluluk
oteller
isteyenlere
##arayı
erkeklere
belirleyici
duyma
Başkanvekili
cay
ikiz
128
Ral
##gem
silindir
ulaştığı
spek
söyleyin
koruması
ısrarla
başlarına
Havacılık
böylelikle
Evrensel
kışın
elli
’nin
##odyum
yöneten
hisseder
iğrenç
sorusunu
vef
##ımlar
Talat
ailem
Giy
Mehmed
gücün
Karma
Makyaj
Faiz
##ıncaya
Ayrı
Master
şebekesi
noktalar
çarpan
##tian
##pati
zorlaştır
devri
diken
kullandığınız
tahr
bayanım
KUL
##erya
medyanın
kub
##imes
devletinin
iflas
denklem
Doları
Nem
Fabrika
sıralama
oldun
derecesi
arttığını
##tayı
diyenler
##lenip
tiş
Birimi
nev
işletmelerin
verirler
eşyalar
##ito
##iliğinin
Yürüyüş
Şair
alanlarına
internete
yanıtını
sağlanacak
##sindeki
##bağ
eklendi
kayda
işleyiş
ateşi
mazer
gündemine
Hisse
Akşener
dez
HABER
zıt
yazım
##ozu
Kaynakları
##lerimle
Deli
incelemelerde
tasarlanmıştır
aktivite
Necdet
Tuncay
statü
Malzeme
azar
kazanmıştır
720
getirin
zannet
##ings
arkadaşının
##orth
bilmiyoruz
metni
Görünüşe
Ergün
Center
##göl
araca
İkili
müteahh
Ris
haberde
Kanser
yargılama
pazarlık
gerçeğe
Yasin
yýl
rest
porn
##isyenler
sergisi
##lad
Vestel
##mayacağım
IC
Cre
Ailesi
Antal
kolaydır
ilinin
döng
kimliğini
deð
Kolları
Sabit
##rahman
diktatör
hiçbiri
##yuz
uygulamaların
##nia
##ild
##MB
aletleri
Out
##hag
sorunlarının
Muhteşem
durumdadır
gelirler
Toplantıda
bittikten
yorul
vücutta
birbirimize
emret
Bölgesinde
yakaladı
tarafların
##epsiyon
Pom
##cH
hatları
işlenen
İktidar
##weet
inancı
Veysel
seçiminde
söylemem
hesapları
Hâ
anlatılan
iptali
##LET
Ja
##asu
Parlamen
oynarken
düşünmüyorum
yapıcı
##asta
ölümcül
beklerken
okulları
zalim
güçlerin
üretime
##kele
savunu
dolgu
köpeği
gözünü
üniversitesi
standartları
başlayınca
gelirleri
itibari
İli
mizah
sağlanmaktadır
CO
##tığımda
ikisini
işleminin
##ımlı
gazetesinde
kafe
rektör
kamerası
##ilmemesi
##39
başlatıldı
Sep
##ılgan
##bos
zekâ
dizisinin
ateşe
ürünlere
polisler
topluluğ
iPad
muhaseb
All
Halep
##lali
##con
kontrolünü
##oke
kurulduğu
##çer
yastık
toplantısına
verimlilik
filmini
##eyting
Başkanlığına
amacına
çıkınca
bilinci
Nap
tamamının
##riz
veririm
güce
this
taviz
yöntemle
taraftarı
beceri
MERKEZ
Ajan
##ikar
mülteci
##bilirler
Kuy
“L
anten
toprakları
şiiri
esnada
teşh
manyetik
out
arkaya
müşterilerin
Cevapları
##icilerin
##boy
##abe
Karam
##lendirmek
##beyli
fiili
aylar
sınırlandır
bırakıyor
Doğuş
Moğol
uğramış
şapka
gösterebilir
takımını
indirme
görüntüleme
##zim
ال
Bakalım
kırmızılı
işlemlerinde
sesler
ipek
veter
amer
kaynaklarının
##erg
Muhaf
general
NE
büyümesi
evlerinde
server
imzalı
Adil
getirdim
hırs
KAN
EC
Kırgız
deyim
yayına
mul
gitmiyor
şiddeti
edeyim
TAN
Kahve
zenginlik
başladığında
“An
yiyen
olursun
Kulüb
nakli
buluşan
hibe
hazırlamış
evlenme
##muyorum
getirmesi
yitirdi
suyla
yapıların
##mayarak
yin
Türkleri
Ürdün
milletimizin
dosyasını
katta
NOT
askerlerin
“İn
yaşındayım
Kılav
##âd
gizlice
çalışıp
185
kafasını
istiş
eğitimine
##umb
pazarında
Viet
las
başvuran
##ARK
2023
##dö
aygıt
Rüş
dı
haftadır
##ew
tatile
Uzmanlar
başkasına
##ICI
duvara
kullanmış
iltihap
doğanın
bilirsiniz
##vent
1979
Veter
hususlar
temyiz
sekilde
##ümcek
##laşır
##mezse
görkemli
üniversiteler
##ginin
sıralar
Sancak
##tüğünü
Bilgileri
sapta
aks
periyodik
##ture
öfke
şerif
##asyonlar
hürriyet
ikimiz
##mezler
seferde
husu
Ortalama
gazi
fal
SA
değiştirilmesi
koştur
saatten
anlaşılıyor
seviyesini
planlar
üstünlük
akaryakıt
kanunu
bilmiyordum
Arzu
##donez
yazımız
saniyede
Kurtar
Youtube
Hip
formunu
favori
aklınıza
köl
##iydim
piyasasında
##günü
başkalarına
kaybına
##lâh
söylenebilir
çalıştığım
sperm
Mükemmel
Chat
Bölgede
3000
gazetecilere
Yayınevi
Oli
başarıyı
almayan
sosyalist
ocağı
HAY
kâğıt
istasyonu
##ilirse
taşınması
hızlıca
arkasındaki
##vo
1981
Kaide
tezah
temelini
OSB
krom
Cafe
surat
birisinin
##bilirsin
yürüyen
Şirketin
haberleşme
##saydı
are
Hastane
basarak
##aför
Komp
enter
Philip
deniyor
öngören
yakalama
etkiliyor
edinmek
Bang
anlayacak
severler
kolesterol
alfab
##’yla
Akbank
ulaşabilir
Acar
aksam
Öğle
otelin
##px
220
Tespit
indirimi
Alem
simgesi
öyküsü
fonksiyonu
plat
edebiliriz
kalsın
enstit
fikrim
bahçesi
yasadışı
ahlâ
Cezaevi
trafiğe
belirlediği
Kodu
üretiminin
hack
bakacak
gösterdiğini
Adayı
Sürücü
ismin
##elisiniz
kardeşler
doyur
binasında
kapıda
##ozof
başvurular
ağzından
Şik
DC
olanakları
##ego
Peş
karşılaştırma
kullanılmaya
Amaz
Kralı
etapta
kıyafetleri
##ptom
Ertesi
##subay
gösterge
savunuyor
##ekin
Berg
alırlar
sitesini
Ye
düşünüp
##GE
belirtilmiştir
hediyesi
demokrasinin
sağlayabil
kullanmanız
çağırdı
azgın
batarya
##ýlý
##38
kuv
##liliğe
kapıdan
pozisyonda
Beylikdüzü
kültürünün
egz
mezuniyet
kasım
söylemiştim
uzunluğunda
Hakim
öneme
Yakup
Francis
##oktey
##ayir
Ayar
Döviz
kategoride
Doktora
Arınç
Nilüfer
kibar
istiyordum
Adan
edince
Harp
##ünikasyon
EF
yasanın
Seks
öldüğünü
dengesiz
sevgisi
Cün
üzücü
Demet
mensuplarının
Arası
araştırmacı
dilinde
anlatacak
Fri
Üstün
##mayıp
muydu
Gemi
belirledi
oluşumu
bonusu
ent
YAŞ
Sergi
Hatice
Eli
##abrik
##dakilerden
işlevi
ekonomiye
etmişlerdir
European
evini
aşkına
uygulamasına
baktı
okuduğum
İzmir’de
##atıyla
boyutta
ziyarette
##açlı
##leksi
##TIR
##ilince
EUR
diyal
çatısı
sunulması
kili
##LIĞI
##raft
olanın
boyama
Mana
##able
malzemelerin
bildiğiniz
##sadı
oros
##masındaki
gerginlik
belirsizlik
dolaşım
kültürünü
gerekenler
gösteriş
##ometrik
sınavına
##App
Harun
Şeref
##liğimiz
Tarık
##çılı
yaratır
çizdi
gelse
sonuçlandır
kışkır
##taşı
##ars
yaşadım
##37
yanıtı
taşeron
##ican
tamamlamak
##PA
şeklini
Küba
modellerini
söylediğim
yapımında
ALI
haberin
##beli
varmı
bahsetmek
hastalığa
kazanması
YÖNET
##ceğini
çekmiş
çocuklarla
koşullarına
##ys
Jan
kaynaş
Gold
özdeş
kaldırma
##luğundan
hükümete
istekleri
ela
sorul
Kamera
ekleme
##sizliği
paragraf
Müziği
numarasını
çekilmesi
politikalar
eğilim
##itör
plaket
Müf
Cerrahi
Donan
Tunç
##kala
ülkesinin
seviyesinin
Lojistik
##aleye
şifa
rengini
çıkmadan
Plat
önems
##ical
Manchester
kullanıcılarına
ilkeleri
konteyn
parlament
Jones
başlanan
##lareli
dilekçe
tipik
gidebil
çıtır
sürüldü
cık
hastaya
umur
şikayetçi
disip
ayrılmak
Linux
pırıl
Savcı
rakamlar
zıp
##lock
ortaklaşa
Osmaniye
##esan
harekat
##formasyon
işlerine
##rix
dest
dezavantaj
##field
Bağış
faaliyeti
Endonez
dere
ağabey
ALLAH
azaltır
dönecek
Spa
devletler
Stratejik
kullanması
cinsinden
gerçekle
biliyordu
gayri
Hizmeti
hükümler
piyasası
yerinin
107
yükseköğretim
##laştırılması
Fiyatı
değilmiş
damgasını
##silat
##meyeceğim
##cen
Kev
saldırılar
etmeyecek
devi
bölümün
##İNİN
korkuyor
süreçleri
Şüphesiz
söyledin
çubuk
geçiriyor
puana
hücreleri
Sümer
osman
atıf
ket
##kö
keb
hikayesini
Değil
kutlu
yetiştirmek
duyduğunu
çalıştıklarını
ötesi
##oksidan
gelişmelere
kıvr
programlarına
##mark
dikkatleri
türban
kore
iklimi
resimli
yerlerinden
öğrenmeye
dekoratif
katılmış
star
Piş
##tisas
kapitalist
tanışmak
aleyhi
fıkrasının
tezahür
görüşmede
Oraya
odun
Samsunspor
Balkanlar
##iko
kapatmak
##oyol
mesleği
favor
istifade
veriyorlar
rus
Yazılı
##layacağım
sembolü
##cağımızı
alınma
mikrop
Hitler
Hamdi
adamım
Fed
Tayf
asıllı
tedaviye
sayılmaz
kurutma
TES
müfre
öğretmenleri
Kuz
kazanmaya
##icinin
##taları
##ivi
##ılmayan
sabahı
Rusya’nın
İTÜ
doktorlar
dediğin
Onay
gitmem
Vietnam
araştırması
etmelisiniz
Kuşadası
cel
yolculuğu
##esses
##egöl
isimlerini
Britanya
Pers
sürül
öldürmeye
şükran
##TAŞ
karşılama
Sağlam
##süzlük
tutuş
##enekon
işlemci
olmasıyla
Cinayet
Nobel
ulaşımı
##bab
kurumlarının
Odaları
Getir
mensubu
##oman
sağlığ
tabiki
makro
yeş
Filmi
Sünnet
Barzan
başkasının
fotoğrafını
##stat
komünist
hayr
##seydim
##amdan
araştırmada
seyirc
bakınca
##ning
Manavgat
filme
ısınma
götürmek
Korun
Ço
##ımızdaki
##acının
Yeh
dogru
ucuza
adi
download
bölüme
elime
CM
planlı
that
Verilen
“Allah
bahane
nazaran
apar
çoklu
Kayıp
tasarımlar
şöhret
yazılır
Kategori
arat
Fars
font
##efabrik
##lıcan
Ash
imzaladı
skandal
SAĞ
suları
hareketin
sakinleri
yapılmak
Finlandiya
maaşı
derinden
hazırlanır
yokken
##varyum
##laştırılmış
##65
##eleyen
seçeneğini
özelleştirme
Clin
Merkezleri
Çinli
##forma
üzünt
detaylara
arabayı
markalar
görüşmelerde
parayla
##oğulları
performansını
dolduran
binden
milyona
söylerken
huz
##okal
##dv
Kombi
nerden
##lular
müjde
kurak
dinler
topladı
cenazesi
haykır
Katolik
kaçış
sekreter
bebeğim
Vas
Hareketi
istendi
metrelik
sürerken
##TAN
faizi
##yıp
benimsem
etkileşim
Nic
öğlen
##emizden
##yonun
şekillerde
Öğretmenliği
Mezun
Hic
bölümden
##memize
metot
firmalarının
finalde
graf
Dük
gizle
İktisadi
##İNDE
Analiz
taşıdı
turda
lere
ödemeleri
azınlık
1978
##lıyordu
Oyunlar
hedefimiz
Anlaşması
girişimci
Enflasyon
DER
şiddete
##yazılı
siste
Ulaş
##üste
topraklarda
İşi
görüşmesi
Geçiş
##MAK
buzdolab
##irlik
dokusu
yönetimini
##ilan
##eddin
##aslan
başarısını
##ıdır
işinde
##mıştık
nedenini
salın
üçgen
yayında
Gümüşhane
##an’ın
ete
cir
nesne
##INI
lüt
TFF
kaynakların
Korkmaz
Aykut
##eğiniz
demiryolu
kılmak
düzeye
başkaları
Filistinli
Amaçlı
Antalyaspor
sevdiğini
söylüyorsun
içerdiği
olmamasına
alacağını
beyazlı
ayakları
şal
ulaşma
geciktir
##sağlığı
sözleriyle
üniversitede
bilirim
sabun
##RS
ayakkab
GPS
kısmından
Koordinatörü
sence
Aya
Pin
uğradı
Boyut
Değiştir
##abilecekleri
büyükelç
yazımda
nedenlerden
habersiz
taraflar
fırsatta
konv
##rolik
seçimlere
olmazdı
Nö
oturdu
ilaçları
riske
kripto
zinciri
tesettür
lob
karşılan
turnuva
anısına
##iste
oğlan
Projenin
Engelliler
Baha
Kur’ân
Çerçev
ziyaretinde
Çağlayan
MB
mağlub
devret
tim
Silivri
şahsi
##alez
gerçekleşir
kılıf
tutmuş
##iğinde
##amanız
bilgilerine
hazırladı
belirlem
Sizde
Güreş
sunumu
Girne
yakının
yaralanma
yöresel
fırsatlar
Elma
işlerinde
##iyeleri
takımına
Bağlı
kü
aktarmak
##old
Emeklilik
##escu
##lendiğini
Dekorasyon
Suriye’de
Vik
tâ
çabaları
erim
ayarları
Yug
bölgeden
karam
başlayın
Kürtçe
Kilo
Pot
Said
##açık
millete
Tunus
sindirim
Ök
##sche
Dönüşüm
çilingir
Ağız
kanıtı
Günleri
yaratma
isteyecek
Üyeleri
ilişkilerinin
##Ã¶
##yık
yapayım
güneyinde
Bunlara
vereyim
##ote
güveni
tutanak
ilgilidir
115
Türkiyenin
##ardan
utanç
çoğunun
alışver
Blo
##ığı
kova
##İLM
düşünceleri
gerekmiyor
##kov
yaşanacak
Som
adımlarla
rüzgâr
##TER
##eza
idrak
alacaktır
Çekilişi
Bayburt
mutabakat
karşılayan
##plant
şerit
düşme
##lerinizde
nüs
##siyesi
karbonhidrat
YAZ
eğitimli
davranışlar
yapacağımız
duyuyoruz
Sön
düşünmüştüm
oral
markaların
Kamil
Ankaragücü
##otal
sırrı
Ambalaj
sebebiyet
Krallık
##kaz
Dök
bıraktım
hikayeleri
iadesi
yasası
##cıoğlu
Kurumları
köye
Hamza
yatıyor
ucunda
Yüzbaşı
Staj
gençleri
kolaylığı
##och
Gücü
Haberleşme
##bahis
Matt
kralı
##melerde
Saint
Semih
İşe
konulardan
çarşı
değiştiren
açıkladığı
‘H
Merkezinde
izledim
bulması
##rab
binaların
açıklamak
##lerek
##cısına
##ıntılı
kahramanı
Neredeyse
etkilenen
1975
galer
serisinin
ça
##mesidir
çiçeği
Tarafından
düzenley
Altında
ilkesi
hissediyor
##iss
dokunulmaz
##elenmiş
tamamlanmış
Erhan
Dava
defans
davalı
##eliyiz
tabaka
kesici
şahsen
##besi
seçimlerin
özü
kızla
Bern
sorunlu
temenni
altındadır
Ece
çıkmadı
rap
Avcılar
videolar
ölçüt
maçlar
Altun
tasfiye
parlamento
Dk
SD
tahıl
kurabiye
tahammül
Anma
yazıyorum
cet
##dakiler
sütün
getirilmiş
konfer
Yahya
nemli
cildin
BAŞKAN
araçlarının
rezil
amca
Bayraktar
maya
yeterlilik
##furt
optik
uzunluk
##rası
##âde
Testi
etkileyecek
BBC
yıldönüm
Gor
##cını
tavrı
MAL
Kaldı
Bask
şirkete
geliştiren
tecrübesi
Kala
ödenecek
kiloda
cesedi
##mud
radyasyon
##88
yapısının
puanları
işçilik
android
eşdeğer
cildi
Kısaca
fener
civarı
eren
kütüphane
telafi
Peygamberimiz
ailesini
fotoğraflarını
Ust
bazılarının
işlemin
traktör
İLE
Bürosu
dinam
GEÇ
Koordinasyon
İhtiyaç
koyma
gözaltı
Oyuncak
safh
Diplo
gördükleri
barışı
edilmeli
uçağın
1973
ortasına
ulaşır
Milliyetçi
bayanların
geçme
SC
Hükm
yapman
##ekkül
okuyun
Oldu
hukukun
Şehirler
olmalarını
şiirler
Formu
parçacık
telefonlar
##RO
şunlardır
uzaklıktadır
ateşte
işimiz
yetkilisi
nör
çalışıyordu
##manları
istediler
donanımlı
AH
senedi
Yugoslav
Dağıtım
çekecek
atandı
yapıyorsunuz
çıkacaktır
##uni
Altan
##laþ
soruşturması
iktisadi
Danışma
diliyoruz
Münih
kursiy
Saldırı
##üse
inek
noktalara
diger
modu
##ettepe
Bud
##ов
##ен
Renkli
olanlardan
İmza
##miye
Kullanımı
Önceden
bilgilerinin
Çerkez
##amıyoruz
##hanesi
##cript
basar
gerektirdiği
##asyonel
gelişimine
neydi
Menkul
tabanca
çalıyor
Ülker
karşılaşacak
##lamıştı
pud
##özü
TIR
Ulaşım
##lid
salonda
##tekin
##eçhiz
liderleri
Luk
sürdürmek
##üd
##inaden
##lüler
Ulusoy
üstünlüğü
sayım
##asıya
##ililer
kazada
kuvvetleri
geçirdim
##dalı
çiftlik
‘E
değiştirdi
uygulamasının
hası
##ああああ
annemin
incit
sağlamaktır
gam
koşullarında
yürüme
mekanizma
00’de
mucize
kendilerinden
görebilmek
hikâye
açıklar
askerin
Mevlüt
##ûn
topa
ncı
etmemek
yokmuş
##ahattin
Mesel
##bahç
geceyi
ibaresi
back
102
tokat
##bilim
geçmeye
eskort
yerlerin
noktayı
Fal
bulacaksınız
Klinik
Çıl
yaşlarında
kostüm
Tıkan
zehirli
arabası
App
##yay
dönemini
istemiyoruz
öð
yaşadığım
haberlerin
youtube
satılıyor
##laşıyor
inceleyen
raporları
geliştirmeye
##mod
Tatar
üyelerinden
Slo
taslak
Nükleer
Teknolojisi
##cial
Denetleme
orgazm
yetim
afiş
Hong
inanın
ettiren
tik
Elde
dikey
işlenmiş
sakınca
Bilgin
Araştırmalar
koruyor
Hilmi
oluşturacak
##kam
##yacaktır
yapabilm
öncülük
şartlarını
##ihan
##obe
OP
gitsin
salt
##ydın
sözleşmenin
militan
yazarlar
SEV
esaslar
rolünü
##cý
##akt
Toptan
ülkemizi
Nefes
##dro
##ydu
gözüyle
boşuna
buydu
bulunduğunuz
şeyle
bilirk
##ool
çıktım
##îr
amacımız
İdlib
eğitimde
Misafir
açmaya
etiketi
amaçları
cihazların
ilaçların
çağrısında
istinaden
ettirmek
##49
Kitabın
##ğdır
##baa
asistan
tamamlamış
##ya’da
işadamı
zorundayım
##kanlı
##ustin
KÖ
görerek
kayın
stop
sistemiyle
girişinde
MES
##ramv
bağdaş
Fur
şahsiyet
anlayan
Ani
##ÇE
konuşmacı
##organ
durmadan
birisini
kontör
dakikalar
çalışmasına
##leşti
Sıf
luk
Alternatif
kurumlara
Arçelik
Yaşanan
##ulo
GENEL
##lr
##iþ
yararı
tablosu
orası
Geçmişte
termal
anlattığı
##irleri
##tiyaz
çoğunu
danışmanı
ÇAL
##CU
Up
aksak
Rap
saatinde
yansıyan
çiçekler
seçip
Üzgünüm
##uza
yapsın
siber
Ayva
müvekk
##gh
sonda
Oyunun
##ragon
##ATI
evlenmek
izlenen
sürenin
efekt
başlarken
Bilal
Erciyes
iğn
bilincinde
insanlığa
ideoloj
##cağınızı
direktörü
basıncı
dolaşan
Clar
havadan
katılması
yurtiçi
##eleştir
önü
ramazan
düşünüyorsanız
Şayet
kafasına
Birim
arkadaşların
Güzellik
dindar
törende
oluyorlar
belirtildiği
sonrada
Merkel
büyümeye
RAM
##100
Gibi
yapıyordu
Ailen
davul
yiyecekler
işkenc
yayınlanacak
Tac
Mahallesi’nde
emperyalist
hizmetlerinden
dengel
pazara
restorasyon
216
parasal
Öde
Herkese
çeyreğinde
##ler”
savaşçı
öylece
gölge
derseniz
Uydu
büf
grip
once
aldın
bırakacak
edilmesinin
Yasemin
gösterg
##UB
yollara
unsurlar
maçlarda
düzenlemeleri
fiilen
Kurucu
Yerleş
kütle
##ilerimizin
AKP’nin
kardeşlik
yarıya
kıskanç
yüzünde
Voleybol
##rick
Şek
çözünürlük
kesilen
##uck
çifte
Bru
Çatal
##eyzaj
Cenk
kapattı
takma
toplandı
Kendim
unsurları
uygulayan
özelliklerinden
##’lu
İktisat
DEAŞ
Afet
##ibr
evcil
Necati
Şafak
bilgisine
##indi
anlaşmaz
Mr
##sayı
dosyayı
ettiniz
ötek
dokunuş
yoksulluk
##idan
##nut
yatakta
yaşanmış
MAK
Mumcu
tekel
##rasya
Esra
üreticileri
terim
kesip
kararla
elinizde
AİHM
DUR
ultr
’’
futbolcunun
kompozisyon
doğrudur
mahallede
İskoç
Serisi
edileceği
##lamasıyla
##anıza
##ihaz
Kullanılan
yaşandığını
konusunun
şarkıyı
##OV
dönme
inen
titizlikle
siparişi
##a’nın
Tayland
kule
çocuğunu
dağıtımı
kalktı
tetkik
Tech
davacı
TK
gitmeyi
sempoz
beğendim
##dad
sürerek
trafiği
kapsar
hâlde
Yaralı
band
Mülk
##liliğinin
Smith
kocası
Ang
öneririm
tanıtmak
ülkelerinden
edersin
değerlerin
gösterme
Amazon
sağlanmış
şab
dağıtı
##isiyat
erkekleri
füze
Lakin
##stir
yoğur
kazandırmak
Performans
Malta
##ross
Lanet
silahlar
hile
##ingle
alırım
lü
Maçın
Diren
Uyuşturucu
hükümdar
ıslah
binada
Beyler
yazdığım
özgüven
gerisinde
lokanta
##eks
##tasiye
bebekler
unuta
KOS
azı
hüs
dizisinde
önerilen
dinleyen
yöntemiyle
ekipmanları
##akil
##livan
Albüm
tişört
gencin
bodrum
##indir
##uver
etmeliyiz
KES
komit
Flash
İtir
Hediye
simg
zirveye
içimde
Öldür
kilometrelik
##42
abdest
lokal
Pic
Günümüz
##hop
ihtiyar
Atöly
tuttuğu
##evleri
erdem
##vercin
kıyamet
##abinde
##ISI
getirilmiştir
kırıklığı
Universit
yararlanarak
vida
##meyecektir
Brezilyalı
saatlerce
##şk
kaybetmeden
##ulh
##feksiyon
##üh
siteyi
TMS
kullanabil
işitme
Lord
götürüyor
attım
##lerinizle
admin
yaşamayı
1930
yatırımcıların
##tici
uza
##uku
olmalısınız
tanır
1977
Sadık
Aram
##laştırmak
fıkrası
oluştuğu
##com
Kedi
biriyim
ayağ
sınıfa
TED
kızdır
##rap
evinizde
talip
##еn
Konuyla
anormal
eleme
Çiller
zarfında
Yavaş
semptom
kahk
Dun
cevapları
bakteri
sempat
buluşacak
pazarda
kıyafetler
##ansu
ebat
##ague
İçi
##ecekleri
saçlı
##KUR
vermesini
soygun
yanlarında
görüşmelerin
evlerde
sudan
erkeği
Dör
##аn
vermeyecek
##stır
ilişkilendir
iddianam
inşaatı
takımında
NGC
teknolojiyi
##dok
yemiş
WhatsApp
basında
gerçekleştirilmesi
Kaldır
175
kapının
karayol
Sayısal
##anse
merkezlerinde
gasp
Cast
amaçlar
söyleye
Pasif
##ılıyorum
edeceksiniz
FA
##bül
düzene
kaybolan
iyiydi
Ergenekon
takviye
##Â½
Til
felç
keyifle
DS
##tiğinden
##iyetinde
içeriğ
##iyade
hastalıklara
##italiz
yaşarken
Birisi
üstünden
Çıkar
kafası
kuralı
illerde
getirilir
##arp
gerekti
herkesten
aileye
Kadar
şahane
Bonus
dist
Hun
eklenmiştir
miktarının
ilişkiyi
##âlet
og
Auto
FC
Abdurrahman
harici
Veteriner
hazırlıkları
karşılaştığı
ardına
metn
hı
30’da
Sakın
jet
gerçekleştirebilirsiniz
##hy
üretimin
piknik
Özen
olabilmesi
bulunduran
çevresine
##MASI
girdiğini
Kayserispor
kısımda
başlangıçta
##pool
Kıymet
##abına
kadroya
Fındık
sevdiğiniz
##rome
BÜY
havalimanı
##âf
Sabri
##ılmakta
##bolu
demiştim
BAL
olmaktır
ölecek
##uluğunu
görevde
erişimi
##egen
yatağa
müşterileri
##ustik
izlenmiştir
##talar
Dubai
Kalın
düzenlemesi
BI
kursları
##inle
Nihayet
biletleri
sorulan
göndererek
Mala
nakled
tadilat
Davet
Kırklareli
Çoban
##’ların
sunarak
Dö
Akıncı
aralığı
ayarı
kente
makarna
Rev
hatırlatarak
Ufuk
broşür
info
almasına
geçmesine
doktoru
aro
taşımacılığı
135
oturmuş
Kapısı
edeceklerini
artmasına
acayip
blo
sulu
vites
tercüm
cinsi
emisyon
fiyatlara
hızını
yaparsanız
federal
dram
‘M
Store
hurda
kaka
büyüktür
##try
Kürtlerin
şehirlerde
##erkes
güzellikleri
eserlerin
etmenizi
gönderen
##latacak
ağab
##giler
istemedim
SO
hastaları
Resulullah
Şirin
döneminden
muamele
girdik
##nova
##venin
öğrenmiş
yatırma
bedeni
bakmayın
kabak
paydaş
##ESCO
##ander
##gra
sağlamıştır
elleri
##asyonları
destekliyor
Steve
IB
oluşabilecek
İnegöl
TAK
kavray
yürütmek
anadolu
vamp
şubat
Burslu
yasalar
1915
katalog
pozisyonu
Teâlâ
arkadaşlarıyla
##Gön
Nevzat
düşündüğü
yanlısı
Fayda
arıyorsanız
yakınlarına
##adok
sayfaları
Üniversitemiz
hacim
##tığımızda
vizyona
Engelli
evlerin
Binası
sözkonusu
fırlat
atölye
iyiye
Bakanlığı’nın
yörün
kuyru
belirtiler
öncülüğünde
Bulvarı
geçirerek
mahv
Kocaman
##аr
##liğimizi
Yaratıcı
yönetime
projesinde
##ümen
##hun
dolardan
müteakip
niz
##ikan
##ск
Montaj
##ASYON
durdurmak
değerlendirildi
öncesinden
##lerimin
##edisi
İstihbarat
##cess
show
Hacettepe
Yapılmasına
edebilirim
olmamalı
kampanyaları
yardim
Tahran
##idat
TÜSİAD
new
fert
besinler
giderler
günlerin
doğduğu
bilmeden
sanatçılar
Brun
Başvur
##ilmiyor
fincan
hazine
ithala
##uri
FM
Aşkın
verdin
uyuma
diri
1976
Hayatta
##layacağı
Araf
##liyim
yücel
##tia
Hotels
Lah
##cılığın
##latıyor
maksadı
izleyici
oz
103
##yana
uyumu
isteğe
eylemleri
piyano
neşeli
##key
yazarken
vasıf
Jet
devletlerin
yayınlar
sürdürmektedir
geçirdik
psikolog
adaya
Gökç
Pekâlâ
kola
##elikli
Detaylı
kadrosunda
##ual
##bedi
lakin
projesini
toplanması
Yetiştir
Gab
adamlarının
piyasalarda
vermekten
butik
##abanı
kaçmak
Fiat
hedefliyoruz
##chi
dantel
##dir”
Frag
mutluluğunu
sonunu
Yakası
yetkililerin
düştüğünü
##vivor
üf
Off
kaydederek
gösterin
cocuk
##uvale
sektöründeki
##er’in
Bitk
bayramı
ke
yapmalı
1923
oluşturarak
Kurulunun
mevz
kıyısında
mektub
##abın
başındaki
##emon
Melih
Güncelleme
müziğin
ruj
telekom
Yalı
Cezayir
denedim
tuzlu
##ronun
##ilmem
House
üş
Düzenli
sızdır
önyar
maliyetleri
Fan
ayrılması
iline
##Â¿
bağlantıları
calis
##esign
Endonezya
##¯Â¿
Let
öğrencilerimiz
Sorumlusu
penis
##öğret
fıs
Maria
saklama
##ute
düşecek
izlediği
##Hz
hayalet
tablos
toprağı
kalırsa
yağma
arabanın
Çocuğun
atılmış
filtre
yayınlan
dehşet
##¯Â¿Â½
abart
Network
yağışı
Yang
çıkarmış
bankaya
karşılaşmada
650
gereğini
tepe
olmayıp
Baf
geçmektedir
##AMA
Dern
Derya
ülkesine
otu
ayrılarak
gözünde
fıkrasında
engelleyen
etkisinin
mekanı
Liman
gönderir
siyasetin
sonlarında
paraları
ilçesindeki
##DO
kontrolünde
oysa
tasarımcı
bulamadım
ciğer
terminal
Reis
Tarsus
otomasyon
Teor
Kaşıkçı
Nokta
yöneticiliği
toplayıp
Konuşma
##ardo
##board
çevren
Belirt
tanıdığı
börek
##aker
Jes
etkinliğe
##elçi
dra
azalması
getirmektedir
arıtma
Limanı
maçtan
SIN
Gazeteci
##ememesi
Kadro
oranına
Sigortası
Halkla
anlamış
makalemizde
görünümlü
espr
adliy
artmaktadır
##layabilecek
ortaklığı
geminin
##ater
bütünleş
olimpiyat
fotograf
##ılınca
mekanda
##lân
psikoloj
Çalışmaları
sefere
108
görünüme
Nij
Ferhat
ücretin
kullanıcılarının
##üzyon
ilişkinin
sac
insanlarda
birikimi
başört
pal
##dırlar
##elenen
ürk
hafifçe
görevliler
Astr
bakla
menz
SÜR
olmayacağı
##uters
gerçekleştiği
‘D
Büyükelçiliği
ömürlü
gazeteciler
BDDK
Araştırmaları
EĞİTİM
Taliban
kasted
Raporda
soran
taşları
##oğa
##lemenin
basket
Tahir
değilsiniz
istir
medres
##enhag
Zeh
106
temizlemek
yalın
içeriğini
Bilge
gönderilmesi
gösterildi
salat
yapacaklarını
Tır
Arasında
##çiliği
esasları
MF
netice
Sempozyumu
yaşın
HAL
stadyum
HAS
tıkanıklığı
almam
##meyeceği
uğraşan
montajı
milliyetçi
davayı
edilebilecek
işçileri
Malatyaspor
işinin
masası
düşünmeden
Çarp
düzeyine
yy
##madılar
1971
izolasyon
rakamları
alanlarını
değişmesi
##yıldız
Clinton
olmadığının
organları
arkası
Şur
##ürek
UNESCO
yatırımcılar
alerj
katarak
Avrasya
istikbal
##cili
##miy
tarzında
firmaya
dolusu
bertaraf
taşıyıcı
##ACI
gecek
##ğim
bileşik
kesmek
hergün
topluluğu
##adar
istes
Bağcılar
##idge
öğrenen
bildiri
yurtdışına
geçirmeye
Iğdır
buradayım
stabil
Jeff
kullanıp
delikanlı
çerez
Normalde
##anıyorum
kullanıcısı
genc
Fevzi
##IYOR
kaynaklarını
Paş
##oe
İşlemleri
tazminatı
gey
Merve
üretimine
Fabrikası
çalışacağım
BR
alınmalıdır
eserin
##iyetine
‘Y
endüstri
değerlere
isimlerden
Düğ
Musul
üniversitenin
uçan
tabur
m²
geçişi
Aracı
inanmak
Jackson
mahsus
Lideri
Muay
isteniyor
sorununa
göbek
Saraç
Suat
gerekirdi
akrab
saniy
zarara
##anıma
ihaleye
gülüms
kafayı
bilgilerinizi
Teşvik
##yid
ütü
yanan
yatkın
susuz
050
1972
##amayacağı
hemşire
kalmamış
DO
Dilerseniz
manzarası
Açıklaması
##doğdu
Tokyo
sanığın
Hükmünde
Maj
Ru
ırkçı
##ies
kapandı
incele
küçüm
kullanıcıya
##İSK
çocuklarımızın
yatırımların
komplik
dünyasını
bitirmek
menkul
sağlandı
##aça
##iklik
##tali
pankart
ayırmak
dileğiyle
Burun
##selam
GİR
olsalar
Kendisini
##elektüel
tüccar
sitelerinin
sað
sünger
Lap
kuzu
##ometri
ismiyle
How
Efsan
farkla
Louis
yarışmaya
bedensel
karsi
Sanatçı
namus
toplantının
pizza
götüren
##latör
tutuklama
##vaz
başlayabilirsiniz
yandaş
Lazer
ilerley
saya
Kopenhag
Sonrası
Eki
kamusal
kesen
Ni
köpük
##lerimden
lah
reyting
mukav
rahatsızlığı
Ekmek
bilhassa
Konfeder
##Ä±r
PL
yetecek
İde
neb
katılır
yapmadı
benims
yasama
Ergin
getirdiğini
planlanıyor
altıncı
Bot
ajansı
korunma
##âtı
Kimyasal
Dublaj
##dört
aleyhis
futbolu
Özk
bağlamında
üniversitelerin
yeraltı
birlikleri
örgütlerinin
##ulum
çocuğunun
MÖ
eğilimi
“En
yapmasına
bkz
Başkons
Forumu
Gra
Anna
kızının
Taraftar
##izle
hatip
Gebelik
Köse
aff
Güvenli
tahlil
Kek
##umi
Arena
etmediği
##ANK
kullandır
üstündeki
veteriner
ölümsüz
verimliliği
ink
karton
##tlar
haftası
##km
yönetmenliğini
kafes
çevirdi
Zer
mesajını
##’yle
kapatıp
konuşul
Rekabet
bakılırsa
Beraber
kaçırma
maksat
İZM
##cap
devral
çıkarları
Yenik
Yehova
Im
kesiş
gideceğim
tabanı
Cehenn
babalar
geliştirerek
yakışır
Serhat
Fore
##üncüsü
edebileceğiniz
Yaka
##itz
elektron
algılama
Türkü
Nakliye
fragman
açıklıyor
öğretmenlik
başsağlığı
odalar
adamların
konsol
girin
öngörül
##zo
##43
bazda
turizmi
gittiğimiz
Çatı
çıkararak
Olur
##iren
Tamir
Hâlâ
düzensiz
içeriye
##hol
cidden
##lerime
davasında
çalışmıyor
Uyku
yapılmalı
kurumlarında
kaldırılan
##ush
İnci
çevrili
550
##’nci
tutumu
Muzaffer
kodları
teçhiz
bari
sorumluluğunu
ziyaretç
##İŞTİR
izlerini
Oteli
1968
uyarısı
Öğretmenler
Maliyet
eleştiriler
Hattı
azaltılması
İmalat
inde
##ğ
izinsiz
izliyorsunuz
Odalar
##’üncü
beslenen
motive
temizlen
##RAF
cömert
haberlere
##törü
yürüyerek
basılı
sigort
ulaşılabilir
konsolos
##LEŞ
sözcüğ
uymayan
cilde
katkıları
uykusuz
##nur
fazladan
Köp
ödüllü
imkânsız
anlayışını
muhabirine
tembel
ölüyor
GE
değiştirildi
Ceph
1967
Terörle
yazışma
Nez
##tığından
anları
sıkıntıları
##well
##idim
patlat
aln
TCK
real
##eçen
köfte
Fazıl
alkollü
Piyasa
artmış
##izden
Açıkçası
yükseklik
tutarında
Len
anlaşılması
Chica
Psikolojik
siyaseti
tuzu
diyorsunuz
isterken
Panel
etkiledi
dökün
bulunup
Paylaş
yahu
toplar
##tihat
your
çalışmalarımız
Tedarik
Çubuk
sıralamasında
##düğünüz
valla
##orf
##linde
vinç
coğrafy
anıms
gelmesine
data
projelere
##lovak
haberini
##IMI
Yahudiler
led
değişime
milyondan
filozof
taraftarlar
vurgulandı
periyot
Yurtdış
Çakmak
##icek
Atalay
##gusal
çalışmalarla
antioksidan
##eman
karakterini
açılmıştır
Rizespor
anlaşmanın
iletişimi
siyasete
Gaziantepspor
##söz
##verdi
dengesini
yanıma
değişikliğe
balıkçı
segment
kirlet
Zayıf
nic
Yenilik
Digitürk
gösterilmiştir
mimarlık
Yıkama
değerlendirmeye
dilin
duvarı
##DİR
öpüş
planını
Zinc
veriş
kireç
Uysal
komple
çember
Kula
okundu
dayanır
klavye
Kültürü
Kıl
erotik
Annesi
Çıkış
amaca
bulunuyordu
aklını
Valilik
karıştırma
Binlerce
Çiftçi
arın
Pav
becerileri
Kişinin
Danışmanı
güçsüz
görmeden
cezasını
##okim
söyleyip
Uygur
Fiziksel
düşünüyorsunuz
bahseder
Muhammet
mücadelesini
diploma
binin
##ream
geleceğine
düzenlenir
beraat
değişmez
##estra
sıkın
##şin
kitabının
almanın
Office
Fenerbahç
gerekçesi
cümleler
artırır
düşündüğünü
##oğlunun
Buh
ürüne
saldırının
Sürdür
yürütme
##aranın
çiftçi
##ekkep
Hill
evimde
ları
ürünlerde
götürecek
Korkut
##liliğine
Doğalgaz
doğaya
duydukları
sayfasına
sütun
arda
taşıdığını
fonksiyonel
denizin
halkını
gözlü
reçet
##çik
Güngör
bulduğunu
Köprü
Dola
saçları
Meyve
Görmek
şerbet
kapılar
Mun
mühendisliği
yollarda
mücevher
##abat
##200
ayık
karakol
ilçelerinde
##ilebilmesi
Melik
##ümden
İsim
resmini
belle
##An
fabrikası
##dio
##oss
liter
kullandığım
Sezen
modelinin
kullanılabilecek
tanesini
yükümlüdür
##guna
isteyebilir
apart
Tanrı’nın
Au
Filip
aşamasına
##95
##GEB
arap
okuyarak
Spr
bakmaya
Coğrafya
##anne
havuç
sporcular
yanıtlayan
##stro
cür
Rabbim
Cüneyt
çalışanlarına
Hür
Chicago
söyleyeceğim
dengesi
BMW
katlan
##gor
deposu
boyutları
##QL
Cad
Kadının
Robin
Street
halindeki
güçlerini
sinek
hayatımı
CHP’nin
Günay
olsaydım
veli
arkadaşlarına
boylu
Sosyalist
Numaralı
mücadelesinde
diğerine
geçmesini
gerekirken
bağlar
binasının
alıyorlar
rehberi
vara
Yönetici
üretken
işyerinde
oranın
##oç
##ves
Ky
104
acilen
Bozkurt
hedeflerine
Kentsel
##ulabilir
oyundan
Uluslar
Mesih
Sizce
Siyasal
doğusunda
##taya
dum
edilmeye
İlkokul
kamuoyunun
arzusu
Reuters
eldiven
fiber
ÖTV
CNN
PV
onlarda
UR
##OJ
gününden
öldürme
amin
unutmuş
hafiflet
##ns
Yaprak
Davran
adresleri
Uzaktan
etmelidir
Havuz
yudum
demiştir
tamamıyla
Kitapları
erecek
kırılma
Resimleri
Sosy
Fatura
pahasına
ettiğin
geçtim
senede
kavra
GAZ
mümin
Tic
gelişmesine
akımı
kurup
hizmetinde
McC
gran
ızgara
eyaletinde
önleyici
fran
bilimi
hakkın
adaylarının
Abi
kartal
gezen
felse
Mecl
##zım
geliyorum
Jane
Prenses
koltuğu
içsel
Asansör
oturduğu
Memleket
olabilirsin
orospu
Olum
türüdür
MK
getirebilir
##siklop
yapabileceği
silahla
yumuşat
Restaurant
kurar
Hamas
Stok
voleybol
##ladıklarını
durma
KAT
Heyeti
pürüzsüz
atılması
sepet
gündemi
bozuklukları
saz
##emm
isterler
dinsel
##iva
askerlerinin
##alin
büyükşehir
ilişkilerde
karşılaştı
##64
##ors
babasını
Sivasspor
araştırmaları
Bük
Ceyhan
kutladı
İthalat
cezaları
yapılıp
##dinin
##jet
Gey
##atını
Yurtdışı
masrafları
ipucu
mana
##icilik
##enen
hizmetlerine
Bayındırlık
annen
alacakları
duruşma
Alüminyum
izleyin
çokça
açılma
elbet
yarıyıl
Yetkililer
cezaevinde
yaşamına
kabulü
ender
bindir
şirketlere
Bakü
vaziyette
##iciliği
davranışı
sertifikası
numarasının
Lab
##resif
##larýn
Nuh
##98
muhar
Get
HS
koktey
büyüyor
##St
##MI
hoşgel
##alılar
ayları
komutanı
kokulu
1963
doya
##viz
Blok
halkımızın
Formula
İklim
çekerken
Uygulamaları
gelecekteki
Mahmud
konuğu
##idik
‘T
##casına
çıktıktan
Boston
Toyota
ÇALIŞ
##oooo
ehl
isteklerini
oğlunu
Mekt
ihtilaf
Hayatın
adındaki
derb
PDY
Okulları
Gazete’de
Belirli
CR
üreme
içecekler
azaltı
entegrasyon
tura
araçla
desem
Cumhurbaşkanımız
kremi
imzası
ufuk
okumayı
Korku
##ister
komisyonu
değiştirerek
##ağımız
bitiyor
bakanı
Tavuk
hazırladık
##eliğe
kullanmadan
anlatımı
NTV
kızını
Seçme
Iz
İnceleme
öğrenir
bekleyin
katılımcıların
simdi
takımlarından
##düksiyon
Toh
dizin
kadromuz
diyorsanız
geçirir
##meyip
başlanmıştır
şartlara
##ords
temelli
programlama
uzaklık
Kazada
düşürül
SK
İzlediğiniz
sitemize
atılır
yolculuğa
ri
##eyecektir
alınmasına
anlaşıldı
müşteriye
anlatırken
dayanıyor
Iraklı
seçti
Uyan
seve
eğr
faaliyette
1961
##nem
ehli
##ctr
Barzani
##izasyonu
Reş
yapmayan
##’nü
hayatımın
Fox
##ology
hastalara
şişman
##ginç
Gas
Sait
gücüyle
sistematik
##idayet
##osistem
##lamaktan
bitecek
vekalet
Aksesuar
masaüstü
gıdalar
dene
dedikleri
illa
Tevfik
bittiğinde
kapatılması
paslanmaz
flaş
yolundaki
##esk
katılımcılar
##yaşı
satranç
##ımdaki
karşılandı
akıcı
seo
rastgele
suçlar
##SEL
Müc
Ait
madem
müşterek
ekranlarında
##ance
Bez
Programları
çaldı
leke
bilgisayara
stratejisi
Sonbahar
fizy
kürs
kabullen
havacılık
Programın
çalışılan
ayrımı
Niz
birilerinin
##LİĞİ
PAR
daireler
Müsteşarlığı
sıyr
Öykü
gerçekleştirdik
bilinmez
buzdolabı
NO
kusura
içers
ulaşarak
Analizi
YÜK
sansür
huzuru
dönerek
Başsavcı
Evin
testler
kriterler
turistlerin
Tug
Yönelik
kamuoyunda
fikrin
listeye
##ECEK
şölen
##’ini
Kuveyt
Atlas
sırayı
Yolcu
tarihlerde
nüfuz
nispeten
vekili
PDF
yanma
Komünist
birbirimizi
silahları
Olağanüstü
“Her
##etti
Kızlar
sanıyorum
teknolojiye
##ins
demeden
##tv
##iness
bildiğini
umutsuz
##kadar
Alma
tahs
halkla
şansımız
sunuc
Rehabilitasyon
ahir
##ronu
Meteoroloji
##ovan
katılımcılara
değişmektedir
kadarı
zayıflama
Ortod
hocası
örgütüne
hastalığının
organı
soruyorum
yüreğ
evinize
Filiz
Sorumluluk
incelemeye
ödülleri
reddetti
KR
Çeviri
yararlanma
Organik
kendimiz
##gie
##basyon
##arkan
borcunu
huzurunda
oluşturmaya
eklenir
Tesisat
##ucak
gazetede
telsiz
Bakanlığına
beklentilerini
sayılabilir
Arac
##pg
anlamıyorum
standartlarına
tamamlayarak
mıyım
yasaları
işlediği
koşan
müesses
edildiğinde
şampuan
atıl
##düklerini
mânâ
Rub
##izon
uygunluk
##lamanız
gerçekleştirecek
bağlanan
hektar
duyduğumuz
başlıyoruz
yalancı
Enter
resm
memleketi
Esenyurt
sihir
ibraz
Türkistan
İHA
kaydedilen
içlerinde
##uter
İçerik
terapi
dalgalanma
##lamakta
##idye
tarafının
manuel
malların
Dat
malın
kriterleri
SÖZ
brüt
İrfan
güvencesi
SH
1969
KOSGEB
Smart
yarısından
yargıç
karşıladı
Devletler
bırakılması
Neb
iplik
koşullarını
sormuş
nab
nca
Eczacı
kaldırıp
diplomat
saklan
etmiyorum
dop
yönünü
bağımlılık
bünyesindeki
Halit
gidilir
kaset
okullara
düzenlenmiştir
hayatımıza
Rot
giderse
Erbil
Oluştur
lab
uf
Johnson
sihirli
##lispor
kalmasına
##AYIN
MR
sırr
##ünüzün
dahili
öğrencilerimizin
gelmesiyle
Brown
avrupa
##cağında
oranlarının
##Gİ
israf
İngiltere’de
ekonomide
##’su
filo
Sha
##arat
bıç
##Ã¯Â¿Â½
hamuru
okunan
karşılanması
özgürce
şahsın
hücreler
sop
sonuçların
kazanı
aileden
Politikası
mühendisi
aradığı
Beton
Mevzu
kişidir
anlayışla
##NE
Poş
gerçektir
Gelişmiş
##itlerin
##kir
##ağaç
##aly
Cenevre
izleyerek
##âv
##opat
müşterilerinin
fiyatının
##ladimir
Fetullah
naf
##alık
ederdi
enjeksiyon
uzer
##YE
yöneticilerinin
1965
ulu
çifti
##tansiyon
Yemin
sebeplerden
##’lerde
taşlar
1919
bizlerin
##star
Bildiğiniz
çip
departman
Mada
kalbini
Duman
Boru
Antep
programlarının
##altında
alda
gezisi
ecza
##acaklarını
ligi
torun
taşınır
azaldı
Wood
hazırladığımız
döndüğ
Williams
sunulmuştur
gl
from
çoğalt
kaymakam
##miştik
##maca
##kini
Uyar
koydum
Enstitü
##birlik
Keçi
gösterileri
imtiyaz
Avşar
rahip
yırt
Turkey
vaad
İZMİR
Blair
##İNCİ
yeryüzünde
Dolandırıcı
adaylığı
Hum
önceleri
##üel
sers
topraklarında
##dyumu
##DD
nce
riskleri
Kültürel
Hazar
götürüldü
tatbikat
suçun
bulunmaz
nezak
sistemlerinde
Vural
cezaevine
literatür
kurye
kaynağından
cinayeti
havalı
edemiyor
almıştım
kavan
gaf
desteklenen
Satıcı
ilçenin
ağustos
misali
duru
Politikalar
Oru
servisleri
Çorlu
umursa
##ıtan
ötesine
üstlenen
öngörülüyor
##ison
##elendirme
##çıl
manşet
altyapısı
Jenn
yetenekleri
SETimes
Hemşir
Yılında
başımıza
açılışını
bencil
##âs
Hollandalı
deş
artıran
bitince
Dicle
Psikiyat
Kalif
Üyelik
bölgesinden
bulantı
kelimesinin
Kuma
İsrail’in
bezi
kaybede
sendromu
Yes
yaşatmak
minnettar
Soma
milyonu
##genin
uğradığı
##luklar
##arsa
laboratuar
##ABD
mevkiinde
bölücü
##dayı
öğretmenin
içerikleri
müdürleri
sözlerle
put
Tecrüb
saygısız
uyardı
açılım
dönüşür
yapılanma
soruna
##danoz
Sudan
##damı
155
sökü
avcı
yapmadım
kombine
takiben
maddeye
gerçeğini
çalışkan
hissetmek
modelin
kademe
dalış
garaj
##ansever
mazlum
başkanlığını
Amerika’nın
bölünmüş
soyun
Koray
Yama
avantajları
Problem
hissedecek
arttıkça
kalabilir
aleti
finanse
atabilirsiniz
askere
##yy
okyanus
yaygınlaş
Sema
battan
##puz
karşılaşmanın
Defter
parkı
otor
sunmuş
anestezi
İnsanları
katılmaya
##vanya
Emrah
sebepleri
medy
üzerini
kullanılamaz
markaları
varlıklar
serüven
##amayacağını
TÜİK
çözme
kızart
LCD
lüz
Turnuvası
istiyorsa
söyleyebilir
İncil
BUL
##opark
raporlar
alışverişi
tahminleri
Senar
süreler
##uyo
##LEN
izlenim
bedelinin
Muam
malları
##alak
##ANA
maske
seçilir
bulunabilirsiniz
fırtın
çağın
yazlık
etrafı
hazırız
##dıklarında
Airb
müşterinin
Çizgi
dama
piyasalar
denizde
##gec
zil
ulaşabil
kirliliği
Cup
seferleri
sızıntı
##mışım
çalıştıkları
Resmî
elbiseler
BAS
##amazsın
kararların
##duc
koyacak
##lÄ±
##bullah
sinemaya
ras
##ea
belirtirken
malesef
marif
Radikal
Ortaya
Bra
Kun
alınmak
##ouch
oyunlarını
##atay
Casino
masada
kullanıldığını
takas
demeye
##ırsanız
perşembe
Mektup
Ortaokul
##emezler
tra
bilgisayarı
bent
sellem
Rog
Mutf
İnter
mekanizması
temalı
planlarını
muhtelif
oluşmasına
dolgun
##sanın
##urucu
köşede
KULLAN
arabaya
fakülte
Harekatı
ihtiyacının
görmeyi
antika
##ulmuştur
hazırlar
davetiye
prenses
mudur
Sex
kavramları
free
salg
##93
Vladimir
Tags
talebini
haftaki
bulunmaması
Unutmayın
##eft
garson
konuşmalar
müfettiş
aşın
gerçekleşmiştir
prat
kısacası
verebilmek
Portalı
gübr
ağzını
yürümek
ikramiye
evdeki
##adokya
örtüsü
GP
cisim
Aras
NASA
dilimi
kısımları
tertip
damak
Darbe
##ılmıyor
edilirse
Selamlar
turuncu
olasılıkla
olmalısın
Sıfır
haml
BEN
Sloven
iddialar
dediğiniz
değerlerine
Çağlar
faaliyetlerin
sosyo
otoyol
Dec
BDP
ilişkisini
##arın
karşılaşılan
kategori
ağaçları
Felsefe
yaratacak
Öncesi
sarma
##adil
iyileştirme
İskenderun
Liv
Koyu
görüşler
eşyaların
ded
golf
##eze
çalışıyorsun
elmas
oteli
yağlar
##bant
tuvale
##ladıktan
dönemden
Tit
Kost
geleneği
##emediğini
kazanılan
sonuçlandı
yaptığımı
TMSF
##ıd
tereyağı
tarafını
Sakin
##EHİR
Yetişkin
##101
tekerlekli
kısmi
bütçesi
tarihindeki
petek
Cy
sürdüğünü
yönetmek
ürünlerden
ihlali
öneririz
daimi
118
müdürlüğü
Ayvalık
yetmiyor
suçları
nedenler
##ydık
işletmenin
bulabileceğiniz
süreliğine
arkadaşlarını
İlker
indirebilirsiniz
Necip
##amazsınız
kurallarını
getirdiler
##lanmadı
zer
1964
gösterip
dus
kılıyor
milletinin
Haritası
evinden
beklenti
vücudumuz
eklent
üvey
Urfa
araçta
##ingen
bozan
sentez
“Z
işaretleri
geçirip
1080
##In
fırsatını
dede
namazını
terfi
Yaptığı
##ра
eşini
tahrib
mensuplarına
olayını
beklediğini
dayanış
uyuyor
2017’de
max
yapý
söyledikleri
önemsiz
adada
1200
Nurettin
##etooth
##sterdam
gösteriliyor
dernekler
Hek
bayi
##üsüyle
sitelerine
ünif
##aran
Toz
düğüm
artik
cinsellik
söylemesi
##eşehir
##96
söylendi
kayıtsız
engelley
acık
kac
Müsteşarı
Anneler
protez
olabiliriz
önlen
idaresi
fiyatlarında
OT
Aralarında
Java
takımdan
Ret
##’lık
silikon
tamamına
bahsetti
Müşavir
Best
##medikçe
eczan
Dim
Mahallesinde
Osmangazi
eleştiren
hikayeler
Mih
##beş
##tica
Naci
mete
Intel
Neler
##eke
##OLU
YSK
ediyordum
Tütün
##ansın
işbu
ödünç
fantastik
firmalardan
##mega
kesildi
silme
##LO
Kartı
hareketinin
kuruluşunun
türüne
##tikçe
YENİ
ilkel
refakat
bombalı
##itin
Kaan
Dürüst
işinizi
bulundular
protokolü
tanıdığım
Cle
zenci
şampiyonluğu
##riyat
forması
damat
##dıra
roket
faydalanmak
Hastalık
ablam
Laboratuvar
Kulesi
evrenin
hızıyla
sayfasından
çorbası
kura
Colle
1945
teşkilatı
ölmek
hayattan
sergile
sınıfının
halled
cumhurbaşkanlığı
tahakkuk
kırp
kaldırdı
Malez
gevş
Kongr
Life
cc
##asý
yerdir
Mim
kuk
Dündar
etrafındaki
duyu
öder
inceley
defned
entelektüel
##urumda
##cat
ÇOK
Salonu’nda
girmeyi
kolye
Kalk
paneli
##rica
incelendiğinde
oylama
çözmeye
geçmişten
gösterilir
görülmeye
uçakla
enerjiyi
geldikten
bekar
Şir
içeriğinde
harcamaları
NET
gayreti
temenn
aynıdır
edilme
kurbanı
Hüsnü
gösterilmesi
##selen
uyanık
Hadis
Ülkemiz
sermayenin
merm
##kap
hediyelik
tanımlama
çıkacağını
yetersizliği
Beğen
Helen
Arada
izini
psikoloji
Parmak
barda
sinin
##layıcısı
siteniz
kanuni
zamanları
Öğrenme
yapacaksın
şeydi
##VEN
adları
raporuna
YER
Romalı
Sıla
##lisans
başarmış
sporu
borçları
aynısını
vermemek
Kamyon
dibine
##57
hoşnut
önerilir
##hil
##agon
Zeytinburnu
üretmeye
milletvekillerinin
edecekler
sapan
arkadaşını
Uyum
adanın
Teslim
kapıya
##strük
kardeşinin
varış
##bardı
düzeltmek
anlaşmalı
pos
Camp
dern
##lanmayı
yerleştirilen
cim
hidro
Yaman
##İÇ
huzursuz
##BR
araçlarını
İLK
bildirilen
Galiba
KİT
iftira
Erk
Dahası
Konservat
ekiplerince
Büyükçekmece
buluşuyor
hükmet
engin
Ülkü
İlginç
yenilikler
çıkabilecek
bakarsanız
çuval
##ülem
##ırsak
korunmak
Rö
##lanmasıyla
yavaşça
Standar
akışını
birleşme
Kafkasya
Zehra
birazcık
ipuçları
Pazarı
ömrünü
üretilmektedir
##asıdır
buyuk
arttırma
demesi
saygıyla
ulaşın
##reb
âşık
Fidan
Topal
bik
yansıması
Tepe
sevinc
##tırmak
özver
çıkmıyor
misafirler
becerilerini
##İKA
edebiliyor
Nazi
Çoğun
hazırlandı
kamuya
inovasyon
Türkiyede
Vedat
##gnez
düşürmek
tuğla
tükür
yayımladı
Sizden
##tl
kadin
##kestrası
##onder
zat
savaştan
Amacımız
bugünlerde
dayandır
modem
##lanmanın
zararları
##YT
anlamadım
kasıt
personele
salonları
Bedi
yaþ
Sout
##FA
şekline
kayboldu
sınırında
yenilenebilir
dostlar
##gimiz
vatandaşlarımız
sonuçlanan
Kablo
katan
##ente
get
okş
UYG
Fık
Peg
yarayan
olsak
çekimleri
##isim
duyunca
Love
yapılmasının
toprağın
düzenlemeye
##SUN
ivme
anlaşılmaktadır
##dî
yapanların
artırarak
Teşekkürler
bos
flor
sorunlarla
##erleri
##irme
karakterler
komplo
##duğunuzda
UZ
Maraş
onurlu
oturur
saldırıyı
müzikal
wh
yargılanan
başladıktan
tencereye
bugünün
##git
Snap
unuttur
##haz
##ılda
bakanlar
tanıya
Örgü
inceler
İzleme
seçimin
##ilerimize
Jor
hepsine
adapte
larda
##uçuk
tasvir
md
##ANT
##yada
görünse
hakikaten
ortamın
kötüsü
doküm
Şikayet
Öden
köft
parke
Hisarcık
Liz
##evk
batısında
güzelce
Şık
##nalı
duyduk
##mazsınız
uygulamalarını
ilçesinin
sağlıyoruz
##tının
defteri
##uge
Ters
Sıv
çocuklarımız
seyreden
enstrüman
##addes
Okur
Taz
emsal
konumlandır
Bosch
Şeb
##eyya
##İG
konuldu
gitmez
indirip
geldiğimiz
Hop
##nis
vermeniz
##tain
konumunu
sözleşmeler
siyasetçi
##ölç
yaptınız
sistemli
belediyenin
yaşamaktadır
yürürken
Yöneticisi
desteklenmesi
dekorasyonu
edebilirler
yapıldıktan
Çaykur
havalandırma
Nin
uzatma
##aldo
toplanır
sunmayı
##raş
markasının
arabulu
##atar
korkuyorum
ailelerine
tertemiz
Host
giydiği
kitaba
Hazreti
Eliz
alacaklar
ilişkilerinde
Karay
##DIN
##ides
servise
##SI
tartışmaları
kak
hizmetlerinde
Jür
Için
büyüdü
##lığımızı
çalışmalarıyla
aktarma
Elektrikli
pür
dokuma
Krem
Kurumlar
Haziran’da
albümleri
zorluklar
Survivor
Fern
##osa
Hizbullah
Söy
Liver
kuruyor
birbiri
fikirlerini
Demirci
şe
cezai
zenginleştir
elin
doğran
Sinir
‘İ
çekmeyi
##meksizin
büyümüş
cıv
düşünülüyor
Görünt
önleme
yapacaktır
varoluş
beyannam
##ehlivan
samimiyet
çıldır
dedir
sloganıyla
Joseph
##mond
bulduğum
yaştan
##83
##rent
genişliği
yapımına
Ima
küçücük
##arlör
Atı
##olun
Mig
odalarında
İlanı
isimlendir
kokusunu
resmî
##gım
Kob
değiştirecek
etmesinin
KOR
Ilı
HER
alabileceğiniz
kelep
zırhlı
##ikalı
komün
ithalatı
Olmak
kısıtlama
ayrıntıları
Termin
kesilmiş
İlahiyat
##ulos
##tebilirsiniz
ekiplerinden
ağacın
duyurusunda
Malzemeler
kun
yarışmasında
##İLERİ
değiştirilmiştir
durumdaki
ekibine
futbolcuların
Salonunda
##emeden
Cli
boşluğu
Kategoriler
personelinin
düzlem
##pertiz
Mam
Kimin
projelerini
gübre
mic
Fırın
ünitesi
patronu
takın
Beach
657
enerjinin
mecl
sempozyum
##garenk
edinmiş
işbirlik
Download
malzemenin
tutuklanan
rehabilitasyon
elinize
ikiniz
Gizlilik
##roz
konulması
istemiyle
merkezlerinden
şuur
yapılmakta
Eden
eziyet
katkılar
laz
tüketiciler
toplantılar
baskılı
lt
papaz
doğruyu
sürdürdüğü
etrafta
##çilerinin
Edward
liderler
temelde
olmamıştır
yönlendirme
ordunun
Varlık
yağışlı
dublaj
ID
Kasımpaşa
Denizlispor
##emeleri
##ımar
katmak
İkisi
Altyapı
Deste
Audi
platformda
zaaf
belirleyecek
aidat
görüşül
##mazsın
##sup
Time
##şah
üslup
Masaj
##MEN
çeşitlilik
##isidir
Baban
hib
##leşmenin
ille
alınca
##SU
günlere
mağduriyet
kuvveti
çete
##yaleti
operasyonlar
okunması
gideceğiz
ço
akabinde
Jin
kararında
##uyun
esasına
gizem
mahkemenin
ekliyor
artışın
Cumhuriyetin
ök
Parti’nin
##92
Garip
##tiyat
güçlendirmek
yazıya
kullandığını
vali
yapabiliyor
ayarlar
Şti
haklarında
yarayacak
##ovic
notları
##ceğiz
badana
Gürk
ilmi
Vakf
çarşamba
başlatan
hesaplar
##ADA
HİZ
dedin
Hot
mahallesinde
kadarki
Duruş
Devrimi
etkilidir
işlemine
Opera
fam
büyüleyici
mahkemede
istediğinizi
##ufan
Bitki
##madığım
##arız
dükkân
havayı
Profil
##kot
##mayacağız
Mahallenin
söylenir
döl
##heast
uykuya
Sünni
zirvede
getirmeyi
Carol
Karanlık
değerlendirilir
kitapların
##ric
dosyalar
Taban
hattının
bereket
kiralamak
ortakları
Mücadel
Orijinal
##ENDİR
##uba
tarife
Forex
inisiyat
yarışmada
Beklen
yapmakla
Pres
kalacaktır
##uu
çoban
##ier
##LAMA
yalıtımı
pişmanlık
ahlâk
##este
doğruya
günlerini
bütünlüğü
imzalandı
Sekiz
dayanı
##latif
Müdürlüğünün
Birbirinden
seçeneklerini
Bileti
şekilleri
hedefine
ailesiyle
skorla
kılar
##ihazırda
dilen
Tamer
##inasyon
cesed
Herşey
kapasitesine
Daum
##lıyız
Amsterdam
Düşünce
gebe
istemesi
arayanlar
rahatlığı
yasaktır
biriken
felsefesi
Sahibi
Dedek
araçlarla
kararsız
BOY
verilmesine
düşünürsek
mümkünse
Düny
Eşit
anlatacağım
yıldızlar
Zemin
paketleme
geçirmez
Zorunlu
kalitesinin
##ımları
atılım
Yönetmeni
çatışmalar
sürdürül
Free
yöneticilerin
ürünlerine
Ahlak
##rari
hazırlayıp
gereklilik
mekanlar
çeyrekte
dayak
fotoğrafçı
aralarındaki
edilmemesi
Kimsenin
sahtek
ilerde
hayalini
Almanya’nın
vergiler
sistemle
buluyorum
bakıcı
saçlar
dinleyic
Çevik
Kaliforn
Mühendisleri
cansız
çalışanlara
##mayınca
Sonu
tümünü
bendi
parçasıdır
kavramını
belediyesi
sayılar
##ORT
Suriyel
metaboliz
geldiğince
hastalığına
Akl
hazırda
Moz
savcılık
götürül
Tuvalet
ettiğinde
batak
hatırlamıyorum
Esenler
##esiydi
odanın
temsilcilerinin
koruyacak
Suyu
kaliteyi
##kestra
bağlanır
flash
olunması
Düşman
##deli
görüşmeye
sük
sistemlerini
nav
büyümenin
standard
yuf
vurguluyor
##canın
bulunurken
tabloda
faşist
dökülen
okuduğu
oynamış
basının
Yaban
oluşturabilirsiniz
peyniri
kutluyorum
##tihan
ulaştırma
##ibin
ihalesi
çalışmasının
Olgun
yaşaması
dine
klor
tesbit
soktu
yiyip
içinse
Southeast
İspanyolca
mız
##şağı
kaybettik
Conn
Stal
faci
kırdı
‘G
230
##ude
##ville
Yürütme
yenik
SPK
katılacağı
Cahit
sunmaktayız
Konsolos
kapitaliz
yendi
Dİ
bilmesi
##onca
asp
Yumuş
Timur
kademeli
aşaması
umurumda
bildirmek
Mehdi
##lalet
kadınlardan
zorlama
İşletmec
kelebek
##amazlar
sitesindeki
Eksik
Rumeli
bebeklerin
Yasal
##iraj
Kapat
##EE
Dördüncü
Carl
verirseniz
bitmez
iyon
ülkemizdeki
eki
yönetilen
##latın
konsantrasyon
aksa
sk
değildim
##68
paylaşıyor
Yüksekokul
ân
sanatın
Biç
Çolak
bulunanlar
##mün
partileri
beynin
örtüş
Mine
gündeminde
gidebilir
##öğüt
edenlere
Seyhan
olmalıyız
Görevlisi
dönemdeki
arg
içerisinden
##ekilde
kavramlar
adayın
##gnezyum
bariyer
araçlara
etmelerini
restore
rakamı
çark
olmama
##yanı
görürüz
ödüyor
Topbaş
single
İsterseniz
açılışında
standartlara
etse
yükselmesi
##ılmayacak
kıran
Müj
gazetecinin
girişiminin
dağınık
çiftçiler
Bornova
kadeh
##но
yeteneklerini
##DÜR
Estetik
benzerlik
tesislerinde
vurul
Liverpool
##Press
anayasal
##’sı
doğuştan
ağrıları
mülakat
Anadolu’da
yerleşen
##ıı
Ankara’ya
desenli
hürmet
##aben
##uli
Bunda
Süresi
##üv
hâle
##REN
oluşturulacak
##çiye
dönemler
çıkmayı
akredi
kesti
bildik
Yakında
sığır
Rahmet
##reş
sorusunun
yıkıcı
Anonim
defasında
görmem
yaparsa
bahsediyor
Mont
yapılmaz
DÜN
##amamış
##71
##atit
Tehlikeli
çilek
dahaki
hayatınızda
DÖN
Küçükçekmece
makinaları
görevlilerinin
##lanik
dinî
istemektedir
beklediklerini
bildirilir
çevrede
yapıyı
Oyunda
sahipliğinde
Dağları
kuruluşun
filmlerin
Mümkün
Müslim
Padişah
Stat
Şak
yargıla
TEB
kadınlarla
çeşitliliği
önerg
olmalarına
##kinin
kuruluşlara
yıprat
Ster
merkezindeki
Scott
SEN
dedektiflik
##nb
düşünürken
alıyordu
İtfaiye
doktorun
değişimler
sektördeki
resepsiyon
Ful
kokan
BÜYÜK
Yardımlaşma
##ansı
deneyimini
odan
mermi
##omer
programlarını
rağbet
Barosu
görünmez
mıyız
##landıran
konuşmaları
Deneyim
##ibet
anlayışıyla
çanak
ishal
##loud
alınmaktadır
##laşmayı
hammadde
işlemlerinizi
##sea
sağlanıyor
Oluş
gan
Endişeler
tasavvuf
uymak
Özet
bölümlerinde
sevmek
çalışırlar
üretilmiştir
##gina
senetleri
uçurum
##CÜ
kalanlar
Brit
GSY
##ortis
Gerçekleştir
bölgelerine
duvarları
##uantum
##badem
durumla
Restoran
şarkısını
çöküş
##ADI
##Bu
kolaylaştırmak
Hus
düzenliyor
taşındı
Arafat
Tale
nelere
Gecesi
Dedi
kama
yansıdı
bilmeniz
Gözlem
domain
faks
Anadolu’nun
Gaziosman
Tabip
politikasını
DJ
fıstık
KAM
Kendinizi
ünvan
rant
topraklar
##ition
##ulmamalıdır
Unak
basını
lara
##ûmet
alışkanlığı
babasına
320
bakarken
çiçekleri
işbirliğiyle
##lamayacağını
Gökçek
Premier
##abeth
##ilebilen
esirg
ülkelerdeki
çene
Dink
hareketlerini
tahsilat
çantası
Dedektif
politikasının
GS
tabiat
mahvet
##küler
Sezgin
##ihi
Eric
Fikri
HİZMET
lisesi
iphone
fun
Prim
senelik
yazarları
konseri
yakını
teras
talebin
Nav
direnci
hard
Galer
##41
geldikleri
##landıktan
içim
maliyetli
kurtarmaya
tamamladıktan
##asyum
paraz
Tüf
HES
bozulması
raporunu
##adiye
Karayolu
arayışı
teklifini
##İCİ
açıklamıştı
öyleyse
sorumlulukları
DN
Akdağ
kullanıyoruz
deterj
Dersim
olmayanlar
kurtara
##unay
1966
##addin
değerine
Unakıtan
Loto
aklımda
Hande
unvanı
materyaller
seçilmesi
Oyna
kurtardı
haiz
şiddetin
Koleksiyon
gazetecilik
Bostancı
##usan
Yiy
Modeli
başarının
##abildiği
geçirecek
hot
telefonunu
yapısında
Müze
Rezerv
Kiraz
Olsun
##ulmuştu
söyleşi
Dışı
##MEK
durun
edinen
İşyeri
Gönüllü
tüketicilerin
fotokop
süreyi
eserlerini
bulunuyoruz
değiştirmeye
askerî
vuruşunda
pazarına
mamul
##ozet
##ümle
havaalanı
yapısıyla
lâzım
lisanslı
hususta
##rolası
Karayolları
eller
yakalar
hesabınıza
Kapadokya
Dama
LPG
rab
##ikil
oluyorsunuz
cd
kabuğu
aciz
verenler
Filmler
sına
Süs
##dent
Serg
asılı
145
hazırlıklı
övgü
önderliğinde
şartlarında
ödenir
edebiyatı
Bakış
Kolomb
açtım
University
##sizce
telefona
Devamını
maçlarında
uygulanmaktadır
##oton
Ufak
donatılmış
kabız
##ramvay
##esifik
açıklamasına
Eserleri
mahrem
yamaç
danışmanlığı
##inger
keçi
DEMİR
Yağlı
##ılsın
yanık
gezgin
faktörü
Sizinle
merkezinden
##park
ilkbahar
projesine
varlığına
##igo
lenf
destekleme
kaçmaya
dom
Bıçak
Ã§
Ryan
unvanını
yapıldığında
##odur
gönülden
dinlendir
verilmelidir
Pasifik
şefi
edileceğini
Beyazıt
yapmaktayız
##esif
1940
çözülmesi
ürünlerinde
Atlet
##AMAN
Barajı
girince
adliyeye
Numara
öteye
doruk
Exp
kalemi
sevgisini
System
hareketlilik
danışma
Şii
eşitliği
Singapur
Avan
dönüşümü
muvaf
hatırlatmak
aksesuarları
kültürün
bazılarını
Çik
sakal
yaptırılan
ulaşmıştır
çocuğum
yetkililerinin
Eğlence
bularak
bağlamak
Poli
edilmekte
##aşüt
Jour
kelimenin
resimde
yakınlarındaki
##oktorum
##İSTEM
hesaplanan
##iyseniz
Işı
##uhan
Kib
yiyor
##iral
Mühendisi
etkiye
Sarah
kişiliği
poster
almaktan
tekerlek
Venez
Kaliforniya
yankı
saltan
üyeliğine
teps
Calif
aptalca
##ello
hesaplanır
kaynaklarından
HAZ
Business
sağladığını
Sevgililer
GT
santr
yazıldı
göb
sevgiyle
Sum
İngilizler
ürküt
gruplara
BEY
getiril
##ekir
ayrımcılık
Cit
kabartma
ortamının
yaşamında
Namık
çeviren
kusma
ibarettir
Ceviz
Gölcük
Biliyorsun
konsep
tehdidi
Yetenek
bakanlığı
baharat
diğerlerinden
türünün
Yüzme
payını
fiyatlarına
News
odağı
olacağından
tarzını
tümüne
##ston
##OLOJ
Civ
görüyorsunuz
başınıza
tatbik
karınca
##sanı
yürüyor
##PR
çalıştığımız
eşine
püf
##ÖY
başvurusunda
darp
##ornia
ekosistem
oranlarını
109
Antlaşması
GÜVEN
rekoru
365
Cevdet
Antalya’da
Mans
kayıtlarını
bombardı
##oskop
İşveren
bilmediği
bozma
sentetik
##celer
gördünüz
dönüşüyor
satışını
Kevin
sürdürülen
secde
sahibinden
Çocukları
Berat
oynayacağı
##lünün
dairesi
sonraları
yukarıya
##eçmiş
##kins
cadı
çığlık
kompleks
müfredat
##ced
teknolojiler
müşterilere
Tasarruf
##atom
etmemiş
kesimin
inanamıyorum
##ULU
yarısına
adlandırılır
Alet
Cro
CC
Boğazı
##TML
planın
##67
seçtiği
##duğumu
kullanılmasını
marş
bör
yapabilirler
Brad
210
bulunuldu
belirttiği
özürlü
##tagon
karıştı
##atin
uyguluyor
eğitimden
Uygulaması
kurumlarına
Yeşilyurt
sistemlerin
Bakanlığınca
##emeyeceğim
gelmem
memnunum
köşeye
##aylon
politikasına
yorumunu
Galata
sayının
paketleri
Hua
Hamilelik
açıldığı
Kanuna
master
gerçekleştirilir
Kapak
tasarısı
türünde
hasat
yürütülmesi
##yl
tefsir
Nan
sürüp
##’lere
şeylerle
kaça
kaos
mahkemece
Akça
değerlendirmelerde
anlatarak
##egal
##uble
ilçeye
ödeyecek
##arruz
ekolojik
açıklamayı
Çarşı
Fırsat
Süreyya
sayfaya
sıradaki
all
aren
FOT
##olat
kitaplarını
yetiştirme
##landırdı
devrede
müşterilerimiz
dövme
lavabo
Ödem
Ciz
Haftanın
yazmayı
dönerken
##selâm
tanıttı
idman
döndüm
toplumunun
otobüsü
ünü
Aran
girmesini
##immet
görevinde
birçoğu
Pow
şimdilerde
##reni
##nar
İstediğiniz
değerlendirmede
orantılı
Canım
ekler
suyunun
##endek
sivri
Sahne
over
##TÜK
boncuk
SİSTEM
##play
dönümü
belediyeler
özelliklerinin
kariyerine
kest
Bandırma
Tasarısı
okuyorum
çekmektedir
yaşanabilir
##EDİ
kulübe
SAH
yinede
##gane
temini
virüsü
Vizyon
Rose
Rüy
bütünüyle
Olayın
##ALARI
cetvel
Şap
##ligat
öğrencilerle
Mithat
Tapın
##işsel
varil
sc
##RAN
Jimmy
arayabilirsiniz
##esiniz
Konusu
tohumu
ettiğine
patlıcan
kenarına
hiyer
bildirir
müteahhit
##ating
##alma
katılıyorum
katal
Kaymakamımız
Pu
sağlamayı
##atema
##ents
kulağa
fiyatını
##lılık
##mediğim
##ifa
Topkapı
##abını
iin
hayatından
himay
karıştırarak
yemeye
time
toplantıları
##DAR
Wes
##üller
birak
Hediy
televizyonda
Ente
Pekin
Özbekistan
girişimcilik
kuaför
yapılandırma
kavr
katılabilir
##heimer
parçalara
hijyenik
üçünc
sanatçıların
bahsedeceğ
Sand
kaşıntı
Yapılması
çürük
talepler
turlar
spora
İlçemiz
birş
hayatımızın
kardeşin
Geriye
vilay
Stadyumu
seneye
Yir
fev
cun
##oları
amacını
evlendi
Ehl
imkanlar
Turkish
##IDS
yaprakları
torunu
süslü
Ciddi
girişimleri
##61
##ilasyon
##urg
Tarımsal
bütünlük
##age
anlarda
yerdeki
eylemler
burjuva
Yugoslavya
doldurarak
üzerlerine
yuz
şöyledir
litr
çağında
Trip
Chel
havalarda
istemediğini
olursan
bla
Akk
olmanızı
##mettin
magazin
kesilir
Soya
gerektiğinin
Duran
Mağaz
sorunlardan
bahsettiğim
yöntemlerini
It
izlenmesi
düþ
Şampiyonu
sabırlı
Bahçeşehir
sül
ezan
GM
##bad
Miami
sezona
Üniversiteler
futbolcusu
Eyalet
Tara
Vay
##tiva
IR
Parlak
bitiren
kadınım
LYS
meclisi
enflasyonun
##lanmasında
manip
eda
yükseltmek
iktisat
##rant
##üsüz
boyan
çiftler
Andrew
Heyet
##durma
doð
yardımcıları
##dır”
İstek
özetle
##KA
Kriz
ayrılıyor
İstasyonu
WordPress
End
şekliyle
eleştirdi
cap
keresinde
##85
Wall
geceye
manada
Pratik
##pil
poker
İttifakı
sitelerinden
yoz
##sky
Lozan
##İMİZ
Muammer
çevirmek
Köl
yapılışı
verdikten
sonun
##ARET
##dian
Malezya
unutmamak
yüzeyi
Maya
##lamasında
incelemeler
Selanik
açıklanacak
durdurma
gruptan
Şimdilik
Motorlu
Korunması
vermeyin
sıh
yenen
yükünü
üyelerini
Robot
dururken
niteliğindeki
##wei
örneğini
##yağı
duygusunu
Akçak
##leşmeye
koşullarının
##CK
##inip
sevenler
Ortodoks
övg
edersen
##imizdir
katkılarıyla
aktiviteler
##retmen
işlerinin
sürmek
üretme
ücretini
muhafazakar
##ely
müvekkil
fiyatına
Beyan
##inecek
suni
primi
117
EA
Anlaşma
krize
##duy
Turgay
rastlanan
Fethullah
birçoğ
buranın
arttırır
##leşir
##89
doğası
##eköy
genişleme
İslamcı
Mutlaka
boyutlarda
rec
sunulur
taşınabilir
karabiber
sahibiz
##öm
gözyaşı
alerjik
Birliği’nin
Doğrudan
Meb
##m2
toplayarak
hayatımızda
köpekler
Arma
hükümlü
Bulunan
##yıla
zammı
##pro
yapılmamış
##eyeceği
##Türkiye
##tt
Şaban
Sırf
850
##obik
##uğu
##İLİK
bugünden
teröristlerin
olg
şunlar
verdiğin
##ebbet
##lamayacağı
Toros
##idem
##tığımı
yükseliyor
örneklerinden
hatırlatıyor
dizüstü
isteyerek
egemenlik
değiştirir
Partili
##ECE
nitelikleri
göstergesidir
##icik
Suresi
durması
çiftin
Belge
Rusça
kahkaha
çözer
##terapi
gösterime
denizi
hemşer
##biyen
Şirketler
##manlar
##lanta
Caz
embr
Prag
##CAN
yapılamaz
maksadıyla
Dünyaya
sıy
sahadan
yaptığınızda
##laşmak
TAŞ
saglik
dergisinin
Excel
büyüklükte
şablon
Bilinç
düşerek
önlemlerin
kavşak
ışığın
Topçu
Sci
##GA
kaynaklara
varlığının
vokal
##dviç
Sönmez
Vil
DEĞER
çıt
Dy
ediyorsanız
yürüyüşü
tuttuğ
koleksiyonu
ücretler
Yerleştirme
ilgiyle
Çekmek
hattında
vahş
içersinde
tercüman
Biyoloji
##cini
kariyeri
numun
edeceğiniz
Barbar
##luluğa
imtihan
Halka
iletim
##düğümüz
acısı
sayfanın
girdikten
öğrendi
söylemiştin
fahiş
##ilmis
sitem
görüşünde
##ELERİ
Portakal
kurmayı
saldırıların
şeyh
sayfalık
Lenin
maymun
beğenisine
##dirim
projelerinin
##ector
mutfağı
mih
Alek
Yenilen
mahalli
Electr
ekmeği
lezzeti
Herhalde
meyveler
aklın
Shak
##otok
Büyükelçi
Canan
Kafa
Resûlullah
Patron
Maddi
turistler
##´nin
dikkatimi
Başkanları
baca
sağlanmıştır
##DEM
savunmak
başkanının
bilinmiyor
dolmuş
kararlarını
yedinci
üyenin
Antak
zım
yöndeki
Milas
##bap
gezilecek
edit
yün
engelle
numaranın
sebebini
yemeğinde
kaynaklandığını
##dörtgen
düşündüğümüz
kurtaracak
##ýnýz
Şof
desteklen
165
Telefonu
yolundan
farkını
Karbon
Pit
Mail
Alpar
kuşlar
Üniversitesinde
kayıtlar
MAN
bitiminde
parkur
kaybetmek
Marks
Bizden
Kütüphanesi
hukukçu
##pol
Frankfurt
Pamukkale
travma
palet
acısını
incelemesi
İBB
vizesi
##fle
bilinmesi
puandan
bilgili
ven
beta
detaylarını
Ligde
##binlerce
Sesi
kazanın
Golden
Kraliçe
dergisinde
##lıktır
harfi
Cafer
##amaması
Apart
üstlendi
ilâh
Wolf
Karac
##lımlı
yakalanma
ilimizde
İfa
pişirme
Spe
mend
xxx
Davranış
Kişilik
Haw
1800
Bey’in
Bozdağ
##aryen
Les
altta
##ribüt
##abileceğimiz
##mışsın
##mazdı
küçült
Kumaş
##iyeyi
ögren
sebepler
kurulunun
belirttiler
Katı
Kıya
Slovak
Çır
##lığımızın
sitenizin
windows
sarsın
Kandil
Amacı
anlayışının
##EA
sürmesi
##leştirilmesi
CAN
notlar
örtülü
Zamanı
##ikiloc
##ozom
eleştirel
soyunma
##ilt
Lacivert
koyul
ölümünün
Rüştü
olaylardan
yanımızda
##bes
aracının
Vize
tarafindan
dinlet
Tosun
tartışmalı
meşin
tesisler
edebi
Sih
kavramının
İğ
##otoshop
##LAŞ
asma
döngü
seçil
kaydedilir
oyunların
veritaban
UV
apaçık
rejiminin
skoru
profes
koşuluyla
konularını
Hamur
anlayışına
Blue
etmektedirler
sokmak
Temmuz’da
4K
##bileceksiniz
içimden
##iyaz
nazım
Venüs
Liste
##içeği
kontrolleri
modası
yanlışlıkla
sokaklarında
ağaçlar
Tour
Kate
içindedir
saman
##ave
CP
binaları
hedeflere
düzenin
efsanevi
Temizliği
##GO
Etti
görüştük
##ohut
cehenneme
Taşımacılık
##eyeceğini
örgütlen
önler
vesileyle
dayanılarak
Parlamento
çağı
vahim
ararken
sezonunun
engelleri
edinme
yapılabilmesi
##ÜS
##´da
Kıv
elek
takipçisi
yaşadığınız
yenilenen
##şit
##ukluk
goz
lokasyon
kapatın
durduğu
yakası
##dükçe
veriyordu
konan
kişide
arkeolojik
katılabil
otellerde
çektim
Çeçen
muyuz
Asgari
280
inip
##unuzdan
araştırmacılar
karşılıksız
borçlarını
Tescil
işbirliğinin
yükselme
golcü
##lerinizden
veritabanı
derslerin
Kılı
becerisi
TARİH
##gum
yediği
gazetelerde
Game
Kablosuz
##nit
##fl
##asmus
kuruluşlarına
uygulayın
manzar
zamankinden
Adamın
kalbin
##layabiliriz
Sop
##remit
İnf
isteyebilirsiniz
bahsi
gösterdikleri
##gro
düştük
Lütfi
Deb
sitelerin
yetmiş
teşhisi
kesilmesi
yorucu
hedefleniyor
merhum
Makam
Pembe
Durmuş
##aye
derinlemesine
İlyas
sınırlar
alışverişinde
birincilik
rend
Karabağ
##eskop
etmediğini
istersin
Ferrari
kâfir
anlatıldığı
##wagen
##ius
üstünü
##ranın
kaynağını
tartışmalara
California
görüle
oyunculara
dezen
##Ar
dönmeye
yapmayın
Kanunu’nun
gelmeyen
gözüne
##cesine
KIR
Seksi
ağaçların
Oyn
Kupa
söylent
akş
uygulamalara
bastı
uyarısında
MET
ibret
##İLİĞİ
belgenin
edeceksin
TÜFE
gerçekler
tabiri
Logo
##ÜT
Hatun
İstihdam
##04
Saati
ünite
siteden
bakışta
Ric
Çayı
değerlerinin
Ade
ulaştığını
oluştuğunu
Fahri
gerçi
##KİN
Psikoloji
esaslı
##umuzdan
Körfezi
sıva
##ıcısı
##onk
görmektedir
inanır
akşamları
hortum
tutsak
Arkeoloji
boğuş
kata
yemekten
solda
uzunca
Read
girişiminde
dokunmatik
yetişmiş
Şükür
ayrıcalıklı
##ımını
alamayan
Cur
noktalarda
namazının
programlarında
vatandaşlık
edemem
Bayar
##beyaz
##umanın
2016’da
Mescid
kapısına
PROG
Etk
##ysan
insülin
Kavram
merteb
Vekil
sözcüğü
Şö
affed
Kont
##eyken
yayılmış
Laz
sırayla
Kuman
##abah
Karakter
Kelime
arkadaşımın
##iyev
hazir
keşfetmek
Kand
##ahir
hobi
RTÜK
3d
İlçesinde
telkin
##kie
Dog
sitelere
##lamam
başlarlar
Cemaat
birliğine
çırpın
##bara
##leri”
güvenini
komed
bib
komuta
yaratmaya
geçmez
mecra
çatal
Ersin
yaa
teslimi
patlaması
Sınıfı
Cumhuriyeti’nin
##adis
yetkileri
alıkoy
yığ
valilik
Ladin
doğruluk
bankalara
Kampüsü
yenilgi
seçerken
İşaret
##ilebiliyor
Tezgah
AĞ
Ruslar
hizmetinizde
##epsi
Seramik
##rice
American
İşadam
##ations
erkeğe
yatağı
lige
içen
DH
Muhab
düşünülmektedir
##digim
kültürüne
Soruşturma
başlıklar
Tapu
Strateji
##ibini
##emens
etmiştim
haberimizde
YOK
Vakıflar
betim
gerçekleşiyor
vermeleri
Farsça
tanıyorum
pilotu
jel
Seda
Kitaplar
siyasî
bilgisayarlar
##misiniz
başlayacaktır
Yayım
##ecileri
kaleye
yoldaş
adımda
##chan
çocukla
Geçir
##tent
Gil
##BD
pc
edilmemiş
Kararnam
kurultay
Tala
hareketini
Gan
ric
mevsiminde
öncek
alışık
işlenmesi
bonser
cip
Dersi
##RI
giysi
CH
uygulamasında
edilmeyen
PER
mahsur
kıvır
aşamaya
ailesinden
desteklem
beklemeye
İskan
Hafız
soracak
inanıyorsanız
Arist
##chen
dinliyor
monitör
##iliyordu
##uka
kuzen
pin
127
sayfamızda
Şevket
Bilmiyorum
fasulye
işimi
gelebil
Adapazarı
anlattım
parçasını
yörüng
##EKİ
sonlarına
Efe
sunduğumuz
##eksü
başlayalım
TA
paylaşma
sitemizi
Yarımada
felsefi
Tarkan
##işt
inandırıcı
BAĞ
uçakları
riskler
Seyir
TCMB
AÇIK
Ayet
miktarlarda
aradaki
##mamızın
gelinen
maydanoz
Nazlı
Grub
perişan
Ayş
lisansı
Çılgın
edildikten
fail
beraberindeki
bakınız
hayvanın
##ekkur
vajin
piksel
Turu
##lığınız
izniyle
varis
nemlendir
##dm
##tları
yaparsan
##urada
şansınız
Necmettin
ilgiyi
bankaları
yüklem
gideceğini
birimler
annesini
kaderi
ayrılıp
Çöp
konuşuluyor
türde
Turhan
talepte
kelimesini
Belgesel
değişimin
etrafa
Süreç
topraklarına
mayın
çapta
##ido
##asus
BA
Kasab
yapmanızı
Hamit
festivali
##uarı
durumlara
Victoria
##egül
AIDS
Şehri
rızası
Kalkan
günümüzün
galeri
klavy
istemediği
işgali
formda
enteresan
Ülkede
PO
sessizce
düşündüğünüz
Likit
Fey
##vari
yaptıran
cezalar
##ılamaz
Seyit
YAT
##tığının
Plaj
abonelik
Sözler
Düzey
İranlı
olmalıydı
diyeceğim
##ode
dun
Sözlük
karakterleri
evlere
profili
anlattık
tıb
insanla
nim
yolculuğuna
sayfalarında
eşek
gerçekleştirilmiştir
umud
sevkiyat
Özelleştirme
erkeklerle
Kraliyet
Simon
Ayas
kırılgan
##âmet
engellen
Gürkan
Gidip
var”
Ston
bide
teklifleri
şahs
evime
Sala
Afrik
Numarası
Zeker
hücrelerin
kalabalı
yapti
##fend
önerdi
Dostum
büyüğü
ağızdan
şirketine
##´ın
içgü
mercek
revizyon
gruplarının
uygulamalarının
eyleme
jap
sahiplerini
##iyal
mürekkep
sprey
##sık
yiğit
sergileyen
girdiğinde
ödeyerek
deger
Satranç
takımların
##ayıcı
çizgisi
##düğüne
Büyü
##yasından
hepiniz
çizel
Şan
yaratılmış
ilgisiz
kolunu
kurduk
tüzük
Antonio
tanısı
Nadir
Gaziosmanpaşa
kabuğ
ım
224
Şi
çıkarmayı
kapsayacak
konuşmasının
“Dün
fs
uygulayarak
Tüketim
Adaları
Minik
düşünüle
düzenini
Çanta
Risale
sınırına
edilmem
TAB
işbirliğini
ihtiş
öksürük
##luktan
erkenden
Olmaz
Babamın
kiracı
##stone
almanızı
çarşaf
belirtilerek
Olym
cazib
tarafındaki
Ein
##bî
Adını
sınavları
İşyer
avukatları
envan
yasaya
ebed
##mahalle
bağlantısını
seçer
metodu
##tihar
##ombi
açıcı
çöpe
yürütüyor
seçebilirsiniz
sapık
Pierre
Etiket
gittiler
gönderebilir
fedakâr
temizlenmesi
oluşumunu
geldiğimde
topluyor
davaya
dönüşen
formülü
olmamakla
vermenin
girmesine
##enç
Buzdola
Fred
##ıy
demeçte
Gram
çalışmalarımızı
Kov
##dey
Caner
Cr
bombası
##larız
düşündü
SE
Çetinkaya
Will
Zamanla
doğacak
yakasında
şirketlerinden
nişanlı
püskürt
Servet
engelliler
##zma
yaşamının
TL’lik
##haleye
Özgün
beğenilen
galibiyetle
##94
Kolej
Alparslan
delalet
1918
mevcu
farklılıkları
makineler
Hiper
##ürn
##meyiz
Ney
##İYAT
enerjisini
portr
Yapan
huzursuzluk
tedavinin
gurup
##ECD
ekimi
hosting
kısmet
##ques
Evli
haftadan
ifadelerine
görmemiş
durdurulması
Magazin
##şat
hareketsiz
yürümeye
PROGRAM
sevgilim
Çamaşır
Eşref
bilgisayarınıza
FP
Valen
HAR
##back
gelişmeye
etkinliklere
Aradan
##layanlar
##lıyorlar
Walter
##pos
111
##tgen
yazısını
engelleme
azap
şarkının
##çalı
altının
hazırlığı
işlemlerde
prestijli
##hası
yetkilendir
kaldıkları
yönüne
ulaşmaya
hedeflerini
günlerce
Express
artırıyor
hekimi
Oruç
Kömür
diğerlerine
Annen
line
çağrıda
Bahçesi
##âli
moza
Akrep
uçağa
fiyatların
eşyalarınızı
Futbolcu
EX
HTML
##YOR
Güvenilir
Bursa’da
takıldı
öğrencilerimize
bittiği
oynayarak
çalışmalarından
hemşehr
##kit
renklerin
zamanını
fuarı
bilimin
hepimizi
Hitit
polik
şoförü
Carlos
Ceren
semtinde
dikkatlice
sloganı
döşeme
birleştiren
yapılmaması
olasılık
sevdir
oluşturmuş
estetiği
##asinda
Saraybos
aranızda
edilebil
norma
kullanıldığında
adıma
puanlık
##abilmeniz
bağımsızlığını
Doğrusu
ucuna
yemeğine
kaderini
insanının
içime
görürsünüz
şehrine
Tali
##yek
Zelanda
yolların
Adresi
bağlayıcı
pel
##oglu
cezasının
Keb
Çekir
ilin
##giller
Light
yararlanabilirsiniz
##tıran
##ılsa
kayısı
bilgisayarın
Mevsim
Trump’ın
kodunu
niyeti
kullanılmalıdır
nek
Bergama
##oğlan
Komik
verilmez
teorisi
Hisarcıklıoğlu
term
şansım
Pilot
##liğim
konudur
##kswagen
oğulları
atarken
Gölbaşı
tanıştım
paf
açılmasını
görülmemiş
çalıştırma
kavuştu
Vaz
paylaşıyoruz
parçaların
Anıtı
Sahaf
Uslu
Cari
yapılmaya
alınırken
andır
##leşiyor
mahkemesi
yapmalıyız
sebeplerle
Edremit
şartların
madaly
besleyen
##amızdaki
Kırgızistan
Arthur
adan
eğitiminin
atması
Sergisi
bitkilerin
Dergi
tamamında
sınıfın
Refah
tecrübeler
kovan
Gürcü
ebedi
dolab
muhabiri
ormanlık
mevzuata
##unuzla
ruhuna
mazeret
serinin
sınavda
dolan
Sende
paylaşılan
Çekmeköy
soyadı
metin2
##cit
Bilet
##gust
Sport
Üsküp
nerdeyse
uğraşmak
##ologlar
##malara
Eşi
kn
##iza
Kurşun
##isiydi
geliyoruz
krediler
alındıktan
içmeye
##eviç
sayfalar
##manızın
Kanuni
serum
Birey
Yılbaşı
rahatlat
Mario
anlaşmayı
email
mekanlarda
salgın
116
Yardımcılığı
bulutlu
abiye
word
##fü
##izof
##layacağını
boyle
##liya
görünüyordu
İstanbullu
nota
hallede
Milano
akvaryum
Jer
Ronaldo
kararnam
tercihleri
soldan
Open
zorundasın
ayrılmaz
yitiren
##isiyim
halleri
##burgaz
##hel
kullananlar
çıkacağı
taşınma
Bale
ceh
tedavisinin
Başkonsolos
doğar
beyni
Uyarı
##uda
Müda
talihsiz
seviyeleri
##cor
Rön
yağdır
gönderilecek
Media
##bağa
memnuniyetle
optimiz
selamlar
kaybettim
##sia
Eks
kaynaklarına
##far
dizileri
İran’ın
teminatı
##lanmaması
çörek
ATM
##ер
tasarıma
Yaptığımız
bahsede
gezmek
görelim
Duyuru
eşittir
kimisi
yaşayanlar
genelindeki
koymaya
bilgilerle
erz
1922
çeşid
yaşları
Bitkisel
Nereye
Müh
tic
##layacağınız
anlaşılacağı
Cenab
yaşamlarını
##lığınızı
Hans
Kurulum
ayırma
Haliç
atılacak
ilçemizde
##ibot
ULU
##eyici
##bire
sera
gidince
tıraş
Zül
yayımladığı
takibe
oranlarda
gole
Yardımcıları
ülkelerle
rüyada
Bakanlığın
çıkarılmış
Hastanesine
yayınlanmış
sayfayı
kontrolden
iletken
önergesi
yapılabilmektedir
##EKT
işgücü
Guar
##mando
kaybetmesi
##asy
sağlarken
çalışmakta
2018’de
##ubat
##miþ
##meyelim
getirisi
sınırlama
Sincan
yazımı
projelerde
şansına
yöntemdir
düzenleyerek
Rahmi
ciro
ilmek
“m
hastal
anh
kelimelerin
Orkestrası
Anayasası
karışma
##zem
##OĞRAF
bacağ
lip
network
kapatıldı
Rauf
umuyorum
yaşamda
enstitü
yılbaş
hayatları
Ermeniler
Meme
sirket
Avni
Tri
Hamam
andıran
##ülbül
talebinin
müebbet
mekanları
Çayır
kursiyer
TSİ
Değirmen
hizmetten
müşrik
Sicil
##UNU
##alk
konsantre
denetleme
yad
Sertifika
Sürdürülebilir
bilirkişi
Mide
##efi
gittiğinde
tavşan
##ersey
aksat
hob
##eyan
biliyorlar
seviyesinden
Mobile
İÖ
##hay
ihtiyat
Scrip
BB
##âne
ortamına
dönemindeki
dilleri
ödemeyi
mürette
##lallahu
CEO’su
çub
##lısınız
gurbet
ultrason
kullanılmasına
MW
mevsimi
##lanmadan
uygulandığı
Sıvı
Yeryüz
mehmet
Live
yaşayarak
belirtisi
kreş
yürekten
başlığıyla
ediyorsa
dokunun
ayağını
##ceğim
##akan
nebze
dramatik
kaybettiğini
Muhalefet
Fransa’da
uzantı
Rehberlik
Bag
açtığını
cent
Fol
yaratılan
##noz
inandığını
Koordinatör
tesisatı
ög
444
Coun
Atom
bunalım
##layacaktır
drama
kurulmasına
Gazetede
pv
Lip
küçül
Düzenlenen
Töreni
arkadaşlara
Komşu
akşama
başvurdu
##balığı
bağlantılar
zevki
nesillere
Eti
kalitesinde
sayılabilecek
##ânî
sahasına
Koruyucu
gördüklerini
belgeyi
##CB
1959
kaybedecek
nüfusa
gittiğimde
##ail
##meyerek
şanzım
Birde
ilacın
Hazretleri
Sina
etli
Limon
Che
şeyim
rekabetçi
parçalarını
malzemeden
sahipti
ödemeye
tipleri
##TALYA
##beyi
anladın
kampanyalar
dusun
toplamaya
Ever
##LK
araçlarda
yapılmadan
bağlanmış
otomobili
720p
bloğ
Döş
toplanarak
desteklediği
Kaymakamlığı
baktığımda
verilerini
Hepimizin
##gine
gittiğim
Soruları
Golf
Jen
mafya
##eçhul
kullanmaktadır
uygulamalarında
değişebilir
tefek
alin
Binbaşı
Asayiş
ilerledikçe
delir
Olimpiyatları
Kurtarma
pdf
Döner
yapmalıyım
görevlendirilen
zirvesinde
Eyy
taşınan
gazetesine
kasıl
##mamıştır
dualar
Gecenin
Chelsea
sözlerin
mevk
Harita
Way
vurmak
##asonu
Hann
İçerisinde
töv
Buca
sınıflar
kurun
Yeme
manastır
##pss
kafasında
Yazın
##ан
gitmesini
Yargıç
sustur
##tiğimi
geçilmesi
Çikolata
rövan
mag
taşıması
kurdukları
yapabilen
diziyi
Yanında
Safran
Kardeşler
##ador
##esti
1954
##iyorsanız
adresinize
Sonsuz
ticaretin
işiniz
telaff
hidrolik
FED
İstasyon
Florida
##İNİZ
Hayatını
hesabında
müzakerelerin
##amayız
koşullara
##âni
kalanı
burjuv
finalinde
Francisco
üzerimize
Pur
nan
##°C
kayıpları
CEV
merkezini
High
nostal
saklamak
Resort
attık
partili
ifadeyle
ödüller
hükme
çekilir
adaleti
evinizin
akıllıca
##jderha
##cınız
törene
ilik
düşüncesiyle
##vuru
Beyt
yelek
kesik
lans
Cop
1938
Uni
sesin
Hatt
Vez
saran
bulgular
tesir
##mlek
terbiye
ris
Aliağa
TİC
Üretici
bittiğini
uğrar
Kenti
vücudum
İsten
##yağ
Ankara’nın
hün
Dul
kağıtları
amiral
agresif
onaylanmış
Journal
isteğini
##ulamaz
##rack
Atas
##hie
manevra
##yoz
efendi
desteğin
Saraybosna
operasyonları
ayrıştır
yaratmış
gerçekleşmiş
ailelere
geçebilir
##başkanı
yaşatan
bozuldu
düzenlemelerin
Ekin
gelişir
yaptırdığı
anlatılıyor
CTP
Tatlıses
atmayı
Pul
giysiler
edindiği
görmekten
sokaklara
SM
Operasyonu
Reform
eð
TE
değişikliklerin
Law
##tima
bakışı
Arsen
açmıştır
sabahın
Pant
aşiret
çevredeki
kürek
sağlayın
##rın
##elem
kuşu
çocuklarımıza
sayfadan
şehvet
yönleri
görmeyen
Günaydın
söyleyebil
IT
Asp
hidrojen
saldırısına
önerilerini
modellerinde
Popüler
içerikler
muhalefetin
veremez
açılmasına
gözlerinin
geliştirdi
yerleşmiş
##üneli
laptop
Fonksiyon
DM
kadardır
##’m
##türbasyon
karışan
temsilci
Mecid
Elizabeth
kurtula
seçimlerine
taraftarları
halif
Fakülte
Dekan
Rakip
hoşgörü
Tü
##miyorsun
kraliç
Taylor
Gürsel
Oğuzhan
Sic
bilanço
OECD
çelenk
rahatlık
müzikleri
Lastik
Karataş
kın
sıfatıyla
bitimine
ölümden
Atölyesi
İdris
tepkisini
Çin’in
ulaşacak
binaya
bulunul
yapacaklar
kabine
##CEL
Tutuk
Hapis
Faik
“bir
üçü
Erasmus
Akgün
sularında
##emediğim
konur
maçlarını
sağlıksız
katıla
birleştirerek
loj
##edr
katsay
##cimek
kadarını
##darı
Sök
TL’den
Taze
İftar
savur
Aydınlatma
Öf
dakikaya
arkan
gelmeyecek
Sanatları
Randev
##cks
##sing
gülüş
araştırmanın
kamaş
ilkeler
metaf
düşünülür
bebeğe
mutfakta
Yapay
Demirören
almadı
anımsatan
Rumlar
but
verimi
girmesiyle
bariz
##depres
ucundan
##diz
##87
##eceli
##‘in
Rom
was
##zheimer
itham
bulduğumuz
ağlar
sosu
yeğen
duyuruldu
parlamenter
mezunları
must
kayıtlara
sıkıntıya
##iyad
vatandaşa
deneysel
Kayak
Sırt
Oktar
hepinize
##istim
##üğe
Christop
maddeyi
##lide
ti
üniversitelerde
kavanoz
operasyonun
yasalara
Çilingir
gazetenin
Cim
Kapas
oturmak
spa
etmişler
##liğinizi
gerekecektir
Çıkan
##aray
spesifik
Cela
konuştum
söylüyordu
dönüştürül
epilasyon
Leh
##97
Dışarıda
videoda
Müslümanlara
indirdi
##SKİ
Dokun
tutulacak
giderim
vatandaşlarının
##lamadığı
belgel
##彩票
PM
dara
üründür
yetmezliği
sisteminden
##ya’nın
yaşanması
üssü
##memeli
Boşan
msn
##abilmeleri
işbirliğine
degis
yarının
konularla
isteyip
##iyetinin
yanıp
hayvanlara
değerlendirerek
verirse
rengarenk
hayranı
HTC
konuşacak
indek
ısmar
Karış
kullanımında
rakibini
anlatma
##veri
Laur
##lanmadığı
Açılan
kontak
girebilir
##roskop
çocukluğ
Amerikalılar
YEN
kitapçı
Milyar
yazılmıştır
araştırmalara
hy
##landım
birimlerinin
medeni
porsiyon
obezite
Taşıt
National
getirildiği
ölümle
bulunmuştu
Fren
Elmalı
Filmde
Gökçen
##’inin
hizmetlerden
dolandırıcılık
uygulanmasına
##üzzaman
teşekkül
noktasından
metreküp
kiralaya
getirilerek
enfes
##62
değişikliğine
##ihat
üretiyor
görmekteyiz
AMA
binde
##leştiren
galibiyeti
tüt
##tiç
ÜR
dayanak
yenisini
birbirinin
İti
Buhar
hoparlör
yakar
Belediyesinin
##haber
istikrarı
##lüğünden
##yürek
aracını
270
kitlesi
1962
Yoğ
tadında
motorları
düşüren
arabalar
yayımı
##atya
çetin
ışıkları
durgun
istişare
##lanmakta
Tif
terbiy
sahiptirler
Ã¶
Poz
manzaralı
kalbinde
kiraz
temasa
Tu
yöntemini
Elmas
mallar
karşımızda
fitness
politikalarını
##”nin
##’min
Başkanlığının
“Baş
ulaşmasını
meseleyi
anonim
büyülü
Manastır
Kef
ilâ
sorma
PVC
Gun
uyuya
okuman
haciz
##manızda
Sabiha
##etre
Çalışkan
kırma
##IG
başvurarak
olamayacağını
bahsedilen
##hip
Şeri
Elvan
114
işçisi
şayet
ulaşmayı
Data
işlerden
vampir
##yordu
ihtiva
pam
##rif
özellikleriyle
Yunanca
birleşik
gücümüz
bağlılık
geliyorlar
Yazarın
uygulanmasını
Bakanlıkça
nihayetinde
##ор
##eve
kadim
##vesi
Fant
bendinde
düzenleyecek
ayrış
##atch
##oyraz
##ganın
##aferi
Paketi
güvercin
ziyaf
mesafesinde
enkaz
kollu
Diyelim
Marx
POL
formatında
Oranı
sözün
Tahsin
ikon
suretle
İstanbul’dan
çorb
Kıyı
AFP
varlıkları
Onlardan
kokteyl
İznik
##‘ın
biskü
pencereden
hakkıyla
EY
##dia
teori
hastanesi
tuşu
##lanacağı
kaldıran
Chrome
tanesidir
ikinc
arkadaşına
##yasını
linki
yakalayan
##ÜRK
##mişim
Karagöz
##layayım
oluşturulur
öðren
şartnam
protest
SAL
saldırdı
olm
Türkmenistan
sürmektedir
Bora
##deti
edebileceği
##vas
ürünlerle
Mermer
ayağına
araştırmak
üreticiler
burdan
çıkışlı
##side
cafe
solo
##ıldığına
gazeteler
özenli
##amo
Tey
##TÜRK
Yeterlilik
koordinatör
Young
##uyum
gülümsem
romat
Bono
Suriye’nin
terket
Yasak
1955
bölümlerde
Bizimle
Malum
azalarak
sektörel
##eling
mikrofon
Mezarlığı
kesintisi
##ju
##ýsý
ergenlik
##izan
Deney
Toplantıya
lirası
gördüğümde
olamayacak
“Ne
örneklerini
İlg
##uhuş
insanda
More
politikalarının
topladığı
yaklaşıyor
Royal
olsan
##elektr
yerken
seçtiğiniz
Sayış
konteyner
tartışması
Acıbadem
DGM
kadından
açması
Albert
Bayrampaşa
Bileş
birbirlerinin
coğrafyada
##para
sorunla
getirirken
Müfettiş
korkak
magnezyum
sinsi
Sofya
Senato
Back
ofisi
Zeybek
Nah
sınıfında
“İş
fosil
Eylül’de
rahmetli
lirayı
hayatınızı
##jit
başkanlığına
astım
ekonomiyi
nadiren
hocalar
Abdülhamid
yollarının
Kıyafet
LT
sû
zeminde
yardımına
döşen
Kahire
yaralandığı
zorundasınız
Kolombiya
övün
alırız
alayım
öldürülmesi
zemini
Motosiklet
yüklemek
dibinde
##Ad
Siemens
kesiminde
Tufan
kaynaklanmaktadır
koymuştur
hücrelerinin
hormonu
Kabil
demokrasiye
zarı
##lüy
kaldırım
savaşan
yanar
beklemeden
arttırılması
İzmir’in
birisine
bulamayan
gösterişli
haberim
Bilkent
Lucescu
ihsan
kredileri
bozucu
aracılık
##LÜĞ
Ox
aktarılan
gözünden
Avrupa’ya
borcun
Kasa
teröre
mimarisi
statüsü
İnternette
öldürüldüğü
onarımı
düzenler
##lettin
bark
pudra
maş
##KET
hazırım
seslerini
memurları
White
irdel
Sac
etmedim
Yurdu
atlama
çalışmasında
indirin
Aksa
Xbox
kürk
lâ
arkadaslar
kenarı
gelirlerinin
kıpır
Disk
davasının
hacı
Uçuş
karşıma
milletimiz
tedbirlerin
okuyabilirsiniz
derdim
ÇIK
evlerinin
Galeri
Bluetooth
##gela
yerleştirin
##vard
##ilmeleri
Huawei
Alay
nede
almamız
##ırsınız
Heyec
Yenişehir
seçmeli
ilerlet
Kıbrıs’ta
##opoz
çıkarılacak
örümcek
benimse
zamanlarında
Çerkes
kesinti
Yolculuk
mağazası
durdurul
MA
sınıfına
##py
menajer
takımla
trajik
arabaları
Alıcı
Dünyaca
##Etik
satıyor
Miras
kirpik
birincil
çizerek
kanuna
duyabil
##masınlar
yayınlanmıştır
kuzeyindeki
##adına
##jin
sunma
okullarında
Tig
etrafına
##veli
sonları
kameralar
müdahalesi
Dersin
boyutunu
elimi
Fethi
sinde
##cacık
madeni
artıracak
sakatlık
bandı
erkekle
Suz
olmay
##üfen
istatistikleri
MAS
Kendilerine
Anad
doç
##lû
destekleri
fonksiyonları
Toplumun
çimento
alandan
dosyalarını
Oğlu
Hub
isteğ
tüketicinin
diline
##ININ
İnanç
##totip
kaldılar
çıkarlarını
bany
ruhsatı
takvimi
Dua
Kutu
beklentilerin
##yester
##itme
bitirdikten
gecesinde
BOR
programların
tül
basan
Atik
O’na
şehirden
miydin
oynamayı
buldular
cennete
halktan
Kardeşim
uyarıcı
kalacağı
tepeden
kurulmasını
rakamın
Lüks
##severler
TU
silahların
ayakkabılar
müddetçe
Badem
[...]
